{"0": "\u0000", "1": "\u0001", "2": "\u0002", "3": "\u0003", "4": "\u0004", "5": "\u0005", "6": "\u0006", "7": "\u0007", "8": "\b", "9": "\t", "10": "\n", "11": "\u000b", "12": "\f", "13": "\r", "14": "\u000e", "15": "\u000f", "16": "\u0010", "17": "\u0011", "18": "\u0012", "19": "\u0013", "20": "\u0014", "21": "\u0015", "22": "\u0016", "23": "\u0017", "24": "\u0018", "25": "\u0019", "26": "\u001a", "27": "\u001b", "28": "\u001c", "29": "\u001d", "30": "\u001e", "31": "\u001f", "32": " ", "33": "!", "34": "\"", "35": "#", "36": "$", "37": "%", "38": "&", "39": "'", "40": "(", "41": ")", "42": "*", "43": "+", "44": ",", "45": "-", "46": ".", "47": "/", "48": "0", "49": "1", "50": "2", "51": "3", "52": "4", "53": "5", "54": "6", "55": "7", "56": "8", "57": "9", "58": ":", "59": ";", "60": "<", "61": "=", "62": ">", "63": "?", "64": "@", "65": "A", "66": "B", "67": "C", "68": "D", "69": "E", "70": "F", "71": "G", "72": "H", "73": "I", "74": "J", "75": "K", "76": "L", "77": "M", "78": "N", "79": "O", "80": "P", "81": "Q", "82": "R", "83": "S", "84": "T", "85": "U", "86": "V", "87": "W", "88": "X", "89": "Y", "90": "Z", "91": "[", "92": "\\", "93": "]", "94": "^", "95": "_", "96": "`", "97": "a", "98": "b", "99": "c", "100": "d", "101": "e", "102": "f", "103": "g", "104": "h", "105": "i", "106": "j", "107": "k", "108": "l", "109": "m", "110": "n", "111": "o", "112": "p", "113": "q", "114": "r", "115": "s", "116": "t", "117": "u", "118": "v", "119": "w", "120": "x", "121": "y", "122": "z", "123": "{", "124": "|", "125": "}", "126": "~", "127": "\u007f", "128": "\u0080", "129": "\u0081", "130": "\u0082", "131": "\u0083", "132": "\u0084", "133": "\u0085", "134": "\u0086", "135": "\u0087", "136": "\u0088", "137": "\u0089", "138": "\u008a", "139": "\u008b", "140": "\u008c", "141": "\u008d", "142": "\u008e", "143": "\u008f", "144": "\u0090", "145": "\u0091", "146": "\u0092", "147": "\u0093", "148": "\u0094", "149": "\u0095", "150": "\u0096", "151": "\u0097", "152": "\u0098", "153": "\u0099", "154": "\u009a", "155": "\u009b", "156": "\u009c", "157": "\u009d", "158": "\u009e", "159": "\u009f", "160": "\u00a0", "161": "\u00a1", "162": "\u00a2", "163": "\u00a3", "164": "\u00a4", "165": "\u00a5", "166": "\u00a6", "167": "\u00a7", "168": "\u00a8", "169": "\u00a9", "170": "\u00aa", "171": "\u00ab", "172": "\u00ac", "173": "\u00ad", "174": "\u00ae", "175": "\u00af", "176": "\u00b0", "177": "\u00b1", "178": "\u00b2", "179": "\u00b3", "180": "\u00b4", "181": "\u00b5", "182": "\u00b6", "183": "\u00b7", "184": "\u00b8", "185": "\u00b9", "186": "\u00ba", "187": "\u00bb", "188": "\u00bc", "189": "\u00bd", "190": "\u00be", "191": "\u00bf", "192": "\u00c0", "193": "\u00c1", "194": "\u00c2", "195": "\u00c3", "196": "\u00c4", "197": "\u00c5", "198": "\u00c6", "199": "\u00c7", "200": "\u00c8", "201": "\u00c9", "202": "\u00ca", "203": "\u00cb", "204": "\u00cc", "205": "\u00cd", "206": "\u00ce", "207": "\u00cf", "208": "\u00d0", "209": "\u00d1", "210": "\u00d2", "211": "\u00d3", "212": "\u00d4", "213": "\u00d5", "214": "\u00d6", "215": "\u00d7", "216": "\u00d8", "217": "\u00d9", "218": "\u00da", "219": "\u00db", "220": "\u00dc", "221": "\u00dd", "222": "\u00de", "223": "\u00df", "224": "\u00e0", "225": "\u00e1", "226": "\u00e2", "227": "\u00e3", "228": "\u00e4", "229": "\u00e5", "230": "\u00e6", "231": "\u00e7", "232": "\u00e8", "233": "\u00e9", "234": "\u00ea", "235": "\u00eb", "236": "\u00ec", "237": "\u00ed", "238": "\u00ee", "239": "\u00ef", "240": "\u00f0", "241": "\u00f1", "242": "\u00f2", "243": "\u00f3", "244": "\u00f4", "245": "\u00f5", "246": "\u00f6", "247": "\u00f7", "248": "\u00f8", "249": "\u00f9", "250": "\u00fa", "251": "\u00fb", "252": "\u00fc", "253": "\u00fd", "254": "\u00fe", "255": "\u00ff", "256": "<|endoftext|>", "257": "he", "258": " t", "259": " a", "260": " s", "261": " w", "262": "nd", "263": " the", "264": "ed", "265": " and", "266": " to", "267": " b", "268": "in", "269": " h", "270": " wa", "271": "re", "272": " f", "273": "it", "274": "ou", "275": " c", "276": " l", "277": " he", "278": " d", "279": "er", "280": " was", "281": " m", "282": " p", "283": "om", "284": " T", "285": " o", "286": "ay", "287": "ar", "288": "ing", "289": "is", "290": " g", "291": "il", "292": "id", "293": "at", "294": "en", "295": " n", "296": " sa", "297": " ha", "298": " S", "299": "im", "300": "an", "301": " The", "302": "or", "303": "on", "304": " it", "305": " th", "306": "ll", "307": "le", "308": " H", "309": " her", "310": "et", "311": "ot", "312": "ir", "313": " She", "314": " He", "315": "ver", "316": "es", "317": " in", "318": "ut", "319": "ow", "320": "ck", "321": " e", "322": " u", "323": "ld", "324": " They", "325": "oo", "326": "ig", "327": " said", "328": "am", "329": "ily", "330": " be", "331": " y", "332": " r", "333": " st", "334": "ce", "335": " she", "336": " \"", "337": "pp", "338": "ke", "339": "ith", "340": "On", "341": " I", "342": " with", "343": "ve", "344": "Lily", "345": " on", "346": " of", "347": " so", "348": " his", "349": "ked", "350": "ri", "351": "nt", "352": "very", "353": " pl", "354": " day", "355": "ad", "356": " you", "357": " that", "358": " up", "359": " had", "360": "st", "361": " play", "362": " they", "363": " Lily", "364": " we", "365": " mom", "366": "my", "367": " for", "368": "el", "369": "ould", "370": "un", "371": " B", "372": "'s", "373": "itt", "374": "ent", "375": " happ", "376": "The", "377": "ch", "378": " li", "379": "out", "380": " want", "381": " sh", "382": "her", "383": "ly", "384": "ime", "385": "ittle", "386": "ound", "387": " very", "388": " time", "389": "ome", "390": " little", "391": " there", "392": "se", "393": " do", "394": " wh", "395": "all", "396": " k", "397": "end", "398": "al", "399": "ht", "400": " ne", "401": " re", "402": " not", "403": " happy", "404": " \n", "405": " big", "406": " M", "407": " but", "408": " sm", "409": "ack", "410": " saw", "411": " It", "412": " as", "413": " an", "414": "ra", "415": "riend", "416": " friend", "417": "ide", "418": "One", "419": "ry", "420": "'t", "421": "ved", "422": " is", "423": "Once", "424": "ake", "425": ".\"", "426": " were", "427": "ter", "428": "ug", "429": " loo", "430": " lo", "431": "ore", "432": "ec", "433": " Tim", "434": " him", "435": " bo", "436": "!\"", "437": " too", "438": " upon", "439": " go", "440": "irl", "441": " j", "442": " wanted", "443": " girl", "444": " se", "445": " out", "446": "ard", "447": "way", "448": " sp", "449": "ill", "450": "ind", "451": " them", "452": " could", "453": "fu", "454": "hen", "455": " at", "456": "ur", "457": " did", "458": " smil", "459": " their", "460": " are", "461": " ex", "462": " A", "463": "ain", "464": " went", "465": "art", "466": "hed", "467": "rom", "468": "ic", "469": "round", "470": " have", "471": " nam", "472": "lp", "473": " all", "474": " J", "475": "ful", "476": " kn", "477": "hing", "478": "ood", "479": " help", "480": "ight", "481": " friends", "482": "one", "483": "ark", "484": " back", "485": "um", "486": " can", "487": " named", "488": " cl", "489": "?\"", "490": " fun", "491": "are", "492": " Ben", "493": " loved", "494": "elt", "495": " al", "496": " Timmy", "497": " One", "498": "op", "499": "side", "500": " le", "501": " no", "502": " sc", "503": " Tom", "504": " felt", "505": "oug", "506": " smiled", "507": "ick", "508": " asked", "509": "You", "510": " toy", "511": " man", "512": " around", "513": "ame", "514": " fe", "515": " say", "516": " boy", "517": " some", "518": " looked", "519": "ure", "520": "omet", "521": " br", "522": " would", "523": " me", "524": " bir", "525": " like", "526": "get", "527": " start", "528": " ro", "529": "as", "530": " see", "531": " W", "532": "ice", "533": "ong", "534": " bird", "535": " somet", "536": "dd", "537": " wor", "538": "ade", "539": "ie", "540": "king", "541": " ag", "542": "own", "543": " tre", "544": " fa", "545": " away", "546": " what", "547": "ings", "548": " started", "549": "gether", "550": " ran", "551": "\u00e2\u0082", "552": "\u00e2\u0082\u00ac", "553": "\u00c3\u00a2", "554": "ared", "555": " make", "556": " But", "557": "ited", "558": "if", "559": "oud", "560": " made", "561": " together", "562": " something", "563": " exc", "564": "ag", "565": " co", "566": " park", "567": " new", "568": " sad", "569": " put", "570": ",\"", "571": " from", "572": "ble", "573": "ther", "574": " pr", "575": " mu", "576": " car", "577": " home", "578": " You", "579": " then", "580": " when", "581": " found", "582": "ell", "583": " other", "584": " again", "585": " ch", "586": " dec", "587": " who", "588": " la", "589": "ried", "590": "ss", "591": " good", "592": " hug", "593": " L", "594": "pped", "595": " wal", "596": "ep", "597": "ally", "598": " says", "599": " fl", "600": "est", "601": "ach", "602": " E", "603": " excited", "604": "pl", "605": "qu", "606": "ook", "607": " get", "608": "ought", "609": " playing", "610": " got", "611": " sw", "612": "ous", "613": "hat", "614": "ny", "615": "ided", "616": "uck", "617": " things", "618": " every", "619": " decided", "620": " came", "621": " bec", "622": "ave", "623": "ro", "624": "ax", "625": " liked", "626": " down", "627": " dog", "628": " scared", "629": " v", "630": "udd", "631": "ust", "632": " one", "633": " find", "634": " bl", "635": " than", "636": " D", "637": "ouse", "638": "ways", "639": " kne", "640": " didn", "641": "ap", "642": " mommy", "643": " care", "644": " always", "645": " ab", "646": "ist", "647": " dad", "648": " feel", "649": "ara", "650": "bb", "651": "arn", "652": "fe", "653": " your", "654": " outside", "655": "ue", "656": " gra", "657": "ant", "658": " ke", "659": " Mom", "660": " took", "661": " lot", "662": "nn", "663": " bu", "664": " about", "665": "ess", "666": " F", "667": "nder", "668": " tree", "669": "eci", "670": " look", "671": " po", "672": " my", "673": "our", "674": " toys", "675": "ite", "676": "ched", "677": " knew", "678": " thought", "679": "ened", "680": " learn", "681": " int", "682": " old", "683": " more", "684": "nna", "685": "ise", "686": "ged", "687": " ta", "688": "udden", "689": "ecial", "690": " special", "691": " Max", "692": "au", "693": " will", "694": "ers", "695": "They", "696": "ret", "697": " pe", "698": " ho", "699": " Sam", "700": " take", "701": " ball", "702": " know", "703": " laug", "704": "fter", "705": "uddenly", "706": " cat", "707": " how", "708": "ive", "709": " tr", "710": " much", "711": " any", "712": " pu", "713": "ma", "714": " sl", "715": " sor", "716": " mo", "717": "ven", "718": "ish", "719": " show", "720": " couldn", "721": "ause", "722": "ink", "723": "But", "724": " house", "725": " into", "726": "ump", "727": " over", "728": " tried", "729": "and", "730": " eat", "731": " sk", "732": " sun", "733": " tw", "734": " clo", "735": "ia", "736": " run", "737": " hand", "738": " Every", "739": " en", "740": " inside", "741": "dy", "742": " if", "743": " told", "744": " never", "745": "ion", "746": " qu", "747": " because", "748": "by", "749": " proud", "750": " gave", "751": " sorry", "752": " this", "753": " op", "754": " played", "755": "ate", "756": " expl", "757": " heard", "758": "ty", "759": " or", "760": " water", "761": "ank", "762": "ge", "763": "sed", "764": " pick", "765": "other", "766": " room", "767": "etter", "768": " just", "769": "ace", "770": " hugged", "771": "ak", "772": " gre", "773": "here", "774": " off", "775": " Sara", "776": " pret", "777": "ile", "778": " each", "779": " long", "780": " com", "781": " box", "782": "ort", "783": " str", "784": "iz", "785": " unt", "786": "oth", "787": " wat", "788": " need", "789": " jo", "790": " We", "791": "Tom", "792": " small", "793": "ine", "794": " bear", "795": "Mom", "796": " until", "797": " nice", "798": " try", "799": "ving", "800": "uc", "801": "sel", "802": "ough", "803": " learned", "804": " kind", "805": " Anna", "806": "ild", "807": " fo", "808": " many", "809": "'m", "810": " Jack", "811": " better", "812": " im", "813": "imal", "814": "gry", "815": "urt", "816": " animal", "817": "ft", "818": " end", "819": " sn", "820": "aut", "821": " te", "822": " cle", "823": " Jo", "824": "vent", "825": "urp", "826": " gr", "827": " beaut", "828": " jump", "829": "mb", "830": " ad", "831": "ream", "832": "pt", "833": " So", "834": " Her", "835": " flow", "836": "ies", "837": " che", "838": " bra", "839": " thanked", "840": " even", "841": " best", "842": " call", "843": "ady", "844": "He", "845": " lots", "846": " laughed", "847": "self", "848": " ra", "849": " way", "850": "urn", "851": "ars", "852": " fast", "853": " by", "854": "lly", "855": " fam", "856": " C", "857": "ves", "858": "arden", "859": " garden", "860": " beauti", "861": "wn", "862": "Th", "863": " beautiful", "864": " loud", "865": "lew", "866": " sky", "867": " don", "868": "hn", "869": "ered", "870": "iny", "871": " careful", "872": " love", "873": " fi", "874": " Then", "875": "\u00c5\u0093", "876": "ase", "877": "ect", "878": " safe", "879": " And", "880": " under", "881": " come", "882": " From", "883": "Yes", "884": " Mia", "885": "me", "886": "It", "887": " hard", "888": " cu", "889": " wo", "890": " list", "891": " stay", "892": "ane", "893": "sh", "894": "ople", "895": " gl", "896": "ning", "897": " still", "898": "ool", "899": " hurt", "900": "ree", "901": " His", "902": " imp", "903": " family", "904": " \u00c3\u00a2", "905": " both", "906": "rm", "907": "igh", "908": " lived", "909": "hes", "910": "When", "911": " people", "912": " animals", "913": " col", "914": " brave", "915": " walked", "916": "ob", "917": "Tim", "918": "ct", "919": " let", "920": "urpr", "921": " When", "922": " two", "923": " surpr", "924": " should", "925": "ished", "926": "ress", "927": " bad", "928": " kept", "929": " fore", "930": " flew", "931": " fin", "932": " stor", "933": " fly", "934": "ast", "935": "ised", "936": "ip", "937": " its", "938": "led", "939": "ock", "940": "ucy", "941": "fore", "942": " going", "943": " clean", "944": " dan", "945": " soon", "946": " pic", "947": " called", "948": " share", "949": "kay", "950": " angry", "951": " rock", "952": " pretty", "953": " con", "954": "No", "955": " ide", "956": "ied", "957": "illy", "958": " ground", "959": "xt", "960": " red", "961": " explore", "962": " cry", "963": " advent", "964": " sto", "965": "so", "966": " real", "967": "Let", "968": " wind", "969": " shiny", "970": "be", "971": " book", "972": " also", "973": " doll", "974": " idea", "975": " before", "976": " opened", "977": "dded", "978": " while", "979": "ummy", "980": " keep", "981": " ey", "982": " now", "983": " feeling", "984": " door", "985": "\u00e2\u0082\u00ac\u00e2", "986": "oon", "987": "oy", "988": " walking", "989": " noise", "990": "les", "991": " fr", "992": "age", "993": "ious", "994": " color", "995": " turn", "996": "thing", "997": "ff", "998": "uch", "999": "th", "1000": " bed", "1001": "ary", "1002": " dra", "1003": " picked", "1004": "imb", "1005": "eet", "1006": " climb", "1007": " del", "1008": "What", "1009": " being", "1010": " food", "1011": " un", "1012": " far", "1013": "ture", "1014": "joy", "1015": " adventure", "1016": "ac", "1017": " smile", "1018": " dif", "1019": "\u00e2\u0082\u00ac\u00e2\u0084", "1020": "\u00e2\u0082\u00ac\u00e2\u0084\u00a2", "1021": "memb", "1022": " wr", "1023": "ught", "1024": " thr", "1025": " looking", "1026": "iced", "1027": " next", "1028": " Lucy", "1029": " nodded", "1030": " quick", "1031": " P", "1032": " dis", "1033": " repl", "1034": " Dad", "1035": " wait", "1036": "ized", "1037": " forest", "1038": " clos", "1039": " Suddenly", "1040": " tra", "1041": "That", "1042": " eyes", "1043": "ger", "1044": "bbit", "1045": "ted", "1046": " own", "1047": " rain", "1048": " import", "1049": " great", "1050": " rememb", "1051": " picture", "1052": "Thank", "1053": "Suddenly", "1054": " stopped", "1055": " enjoy", "1056": " vo", "1057": "Ben", "1058": " give", "1059": " important", "1060": " work", "1061": " near", "1062": "gan", "1063": "pot", "1064": " ever", "1065": " app", "1066": " after", "1067": " quickly", "1068": " listen", "1069": " bre", "1070": "ting", "1071": "bbed", "1072": " ma", "1073": " replied", "1074": " fish", "1075": " rabbit", "1076": " hands", "1077": " G", "1078": " noticed", "1079": " bro", "1080": " slide", "1081": " walk", "1082": " think", "1083": " truck", "1084": " ac", "1085": "kes", "1086": " strong", "1087": "She", "1088": " showed", "1089": " de", "1090": " everyone", "1091": " wonder", "1092": "fere", "1093": "bye", "1094": " differe", "1095": "irst", "1096": "So", "1097": " sure", "1098": " has", "1099": " right", "1100": " became", "1101": " been", "1102": "maz", "1103": " sound", "1104": " tow", "1105": " ru", "1106": " tal", "1107": " amaz", "1108": " head", "1109": " shout", "1110": " bright", "1111": " ye", "1112": " watched", "1113": " R", "1114": " mor", "1115": " child", "1116": "able", "1117": " mean", "1118": " where", "1119": "llow", "1120": " high", "1121": " face", "1122": " Sue", "1123": " cook", "1124": "day", "1125": "aybe", "1126": " watch", "1127": " blue", "1128": "aught", "1129": " different", "1130": " store", "1131": " N", "1132": " goodbye", "1133": " dress", "1134": "ull", "1135": " Bob", "1136": "ng", "1137": "ange", "1138": " squ", "1139": " okay", "1140": "isy", "1141": "lease", "1142": " voice", "1143": " Mommy", "1144": "Jo", "1145": "ath", "1146": " night", "1147": " Spot", "1148": " us", "1149": " boat", "1150": " flowers", "1151": " place", "1152": " follow", "1153": " ar", "1154": " use", "1155": " closer", "1156": "unny", "1157": "leep", "1158": "ired", "1159": " fav", "1160": " yell", "1161": " grabbed", "1162": " curi", "1163": " warm", "1164": " forg", "1165": " cr", "1166": " Sarah", "1167": " John", "1168": " mag", "1169": " stick", "1170": "We", "1171": " jumped", "1172": " cake", "1173": "more", "1174": " tell", "1175": " anymore", "1176": "After", "1177": " butter", "1178": "ndma", "1179": " three", "1180": " ask", "1181": "co", "1182": " our", "1183": "lie", "1184": " curious", "1185": "ount", "1186": "orn", "1187": " cont", "1188": " fell", "1189": "ached", "1190": " birds", "1191": " Th", "1192": "ass", "1193": "Her", "1194": "iss", "1195": " helped", "1196": " pull", "1197": " Jane", "1198": "itc", "1199": " first", "1200": " block", "1201": " hop", "1202": " bit", "1203": " dr", "1204": " realized", "1205": " kid", "1206": "Look", "1207": "ila", "1208": " mon", "1209": " brother", "1210": "Anna", "1211": "Sara", "1212": " z", "1213": " Everyone", "1214": " ate", "1215": " does", "1216": "imes", "1217": " happened", "1218": " stop", "1219": "zy", "1220": " yummy", "1221": " favor", "1222": "ppy", "1223": "itchen", "1224": " kitchen", "1225": " sweet", "1226": "us", "1227": " really", "1228": " per", "1229": "aisy", "1230": " grass", "1231": " favorite", "1232": " began", "1233": " rest", "1234": " ready", "1235": " lea", "1236": " underst", "1237": " reached", "1238": "air", "1239": " ste", "1240": " story", "1241": " bunny", "1242": " As", "1243": "'re", "1244": " pain", "1245": " sing", "1246": "ster", "1247": " sand", "1248": " only", "1249": " here", "1250": " flo", "1251": " am", "1252": " glad", "1253": " tri", "1254": " beh", "1255": " world", "1256": " open", "1257": " cre", "1258": "fully", "1259": " prin", "1260": "where", "1261": "arent", "1262": " flower", "1263": " through", "1264": " fire", "1265": " ba", "1266": " done", "1267": " having", "1268": " thing", "1269": " delic", "1270": " himself", "1271": " tired", "1272": " parent", "1273": " soft", "1274": "Timmy", "1275": " fro", "1276": " tast", "1277": " butterf", "1278": " Let", "1279": " why", "1280": " part", "1281": " cut", "1282": "ken", "1283": " mess", "1284": "Mommy", "1285": "Can", "1286": " worry", "1287": "iver", "1288": " din", "1289": "uff", "1290": "ater", "1291": " magic", "1292": " waved", "1293": " shouted", "1294": " pond", "1295": " kids", "1296": " hat", "1297": " sees", "1298": " duck", "1299": "olly", "1300": "illed", "1301": " game", "1302": "ient", "1303": " making", "1304": "ather", "1305": "John", "1306": "As", "1307": "akes", "1308": " catch", "1309": " seen", "1310": " cool", "1311": "ation", "1312": " coming", "1313": " less", "1314": " used", "1315": " dark", "1316": "eddy", "1317": " fix", "1318": " Joe", "1319": " thank", "1320": "mer", "1321": " top", "1322": " lady", "1323": " hair", "1324": "aring", "1325": " prom", "1326": " hopped", "1327": " Can", "1328": "\".", "1329": "ign", "1330": " surprise", "1331": " draw", "1332": " mum", "1333": " mouse", "1334": " funny", "1335": "rel", "1336": " cra", "1337": "aper", "1338": " -", "1339": " full", "1340": " touch", "1341": " light", "1342": " spot", "1343": "ren", "1344": " dro", "1345": " Benny", "1346": " parents", "1347": " worked", "1348": "ins", "1349": "oney", "1350": " surprised", "1351": " Do", "1352": " carefully", "1353": " trees", "1354": " frog", "1355": " swing", "1356": " doing", "1357": "Don", "1358": "inally", "1359": " sat", "1360": " That", "1361": " ice", "1362": " In", "1363": " held", "1364": "Wow", "1365": " running", "1366": " pretend", "1367": " swim", "1368": " set", "1369": " read", "1370": " delicious", "1371": " needed", "1372": " tight", "1373": " slow", "1374": " remembered", "1375": " lost", "1376": " cold", "1377": "ards", "1378": " smell", "1379": " wood", "1380": " happily", "1381": "hy", "1382": "ely", "1383": " looks", "1384": " behind", "1385": " herself", "1386": " enjoyed", "1387": " cried", "1388": "ask", "1389": " years", "1390": " name", "1391": " hole", "1392": " buy", "1393": " blocks", "1394": " dri", "1395": " yellow", "1396": " sleep", "1397": " gi", "1398": "cess", "1399": " butterfly", "1400": "ued", "1401": "ike", "1402": " wished", "1403": " perf", "1404": " another", "1405": " green", "1406": " Daisy", "1407": " move", "1408": " tall", "1409": " bag", "1410": " air", "1411": " floor", "1412": " lesson", "1413": " cars", "1414": "ul", "1415": " bow", "1416": " arri", "1417": " window", "1418": " sho", "1419": " children", "1420": "ner", "1421": " finished", "1422": " hill", "1423": "andy", "1424": " After", "1425": "sp", "1426": "ens", "1427": " paper", "1428": " likes", "1429": "From", "1430": "sy", "1431": " hold", "1432": "Sam", "1433": " wrong", "1434": "reed", "1435": " understand", "1436": " contin", "1437": "atter", "1438": "uit", "1439": "rew", "1440": " gent", "1441": " close", "1442": " anything", "1443": " wall", "1444": " el", "1445": "asure", "1446": " left", "1447": " arrived", "1448": " able", "1449": " hun", "1450": "ross", "1451": "av", "1452": " hear", "1453": " friendly", "1454": " forgot", "1455": "ama", "1456": " gone", "1457": " creat", "1458": " wet", "1459": " lion", "1460": "ello", "1461": "Hello", "1462": " dream", "1463": " hot", "1464": "bo", "1465": "ber", "1466": " Sally", "1467": " filled", "1468": " dir", "1469": "ield", "1470": " cookies", "1471": " laugh", "1472": " dinner", "1473": " broken", "1474": "lf", "1475": " else", "1476": " hid", "1477": "ced", "1478": " pink", "1479": " followed", "1480": " table", "1481": " mar", "1482": " colors", "1483": "oup", "1484": " moment", "1485": " continued", "1486": " wonderful", "1487": " Em", "1488": "ey", "1489": "irrel", "1490": "ined", "1491": "rot", "1492": " finally", "1493": "Jack", "1494": " arm", "1495": " might", "1496": " Now", "1497": " yes", "1498": " cast", "1499": " build", "1500": " enough", "1501": " Billy", "1502": " someone", "1503": " perfect", "1504": " stayed", "1505": " fair", "1506": "app", "1507": " morning", "1508": " puppy", "1509": " There", "1510": "ol", "1511": " daddy", "1512": " trying", "1513": "'ll", "1514": " ju", "1515": " others", "1516": " books", "1517": " mus", "1518": " agreed", "1519": " snow", "1520": " squirrel", "1521": " cream", "1522": "room", "1523": " getting", "1524": " grandma", "1525": " leaves", "1526": " baby", "1527": " Lila", "1528": "icy", "1529": " few", "1530": " count", "1531": "Then", "1532": "At", "1533": " fall", "1534": "gon", "1535": " break", "1536": " climbed", "1537": "ries", "1538": " beach", "1539": "ash", "1540": " please", "1541": " bug", "1542": " mother", "1543": " train", "1544": " brought", "1545": "ance", "1546": " This", "1547": " deep", "1548": " vis", "1549": "ated", "1550": "shed", "1551": " met", "1552": " wasn", "1553": " sometimes", "1554": " everything", "1555": " Tommy", "1556": "ich", "1557": " music", "1558": "key", "1559": "ling", "1560": "This", "1561": "os", "1562": " turned", "1563": "lc", "1564": " ride", "1565": "oring", "1566": "oom", "1567": " song", "1568": " spark", "1569": " hungry", "1570": " fight", "1571": "ons", "1572": " pictures", "1573": "ds", "1574": " makes", "1575": " sear", "1576": "ucky", "1577": " listened", "1578": " joy", "1579": " pol", "1580": " What", "1581": "ee", "1582": "His", "1583": " clot", "1584": " sail", "1585": "bble", "1586": "apped", "1587": " comp", "1588": " wants", "1589": " plan", "1590": " clothes", "1591": " poin", "1592": " K", "1593": "zz", "1594": " strange", "1595": " balloon", "1596": "man", "1597": "enny", "1598": " pi", "1599": " grow", "1600": " flying", "1601": "row", "1602": " scary", "1603": " treat", "1604": " waited", "1605": " amazed", "1606": " teddy", "1607": " castle", "1608": "ister", "1609": " ele", "1610": " amazing", "1611": "med", "1612": " spl", "1613": "Oh", "1614": " owner", "1615": " leave", "1616": " promised", "1617": " danger", "1618": "ever", "1619": "OK", "1620": " white", "1621": " such", "1622": " talk", "1623": " pat", "1624": "uffy", "1625": " fur", "1626": "ope", "1627": " pie", "1628": "red", "1629": " pulled", "1630": " pre", "1631": " woods", "1632": " To", "1633": " shared", "1634": " towards", "1635": " alone", "1636": "cle", "1637": " Maybe", "1638": " sit", "1639": " nap", "1640": " colorful", "1641": "amp", "1642": "ph", "1643": " visit", "1644": "ugg", "1645": "igg", "1646": "thy", "1647": "ence", "1648": "ctor", "1649": " tail", "1650": " magical", "1651": " river", "1652": " hig", "1653": " belie", "1654": " grate", "1655": "ually", "1656": "ott", "1657": "ang", "1658": " hide", "1659": " smiles", "1660": " silly", "1661": "ower", "1662": " side", "1663": "Max", "1664": " roll", "1665": " pro", "1666": " gu", "1667": " Amy", "1668": "eter", "1669": " grateful", "1670": " faster", "1671": " treasure", "1672": "ased", "1673": " snack", "1674": "up", "1675": "avy", "1676": " land", "1677": " moral", "1678": "ained", "1679": " sister", "1680": " Gra", "1681": " shap", "1682": " paint", "1683": " slowly", "1684": " field", "1685": " pet", "1686": "orm", "1687": " sec", "1688": " Jim", "1689": " bran", "1690": " must", "1691": " min", "1692": " worried", "1693": " helping", "1694": " job", "1695": " fox", "1696": "set", "1697": " money", "1698": " pot", "1699": " qui", "1700": " bel", "1701": " acc", "1702": " living", "1703": " monster", "1704": "less", "1705": " party", "1706": "ear", "1707": " most", "1708": " wear", "1709": " remember", "1710": "ire", "1711": " sign", "1712": "wl", "1713": " cloud", "1714": " candy", "1715": " higher", "1716": "ident", "1717": "ipped", "1718": " All", "1719": "der", "1720": "ze", "1721": " quiet", "1722": " town", "1723": "unch", "1724": " princess", "1725": "asket", "1726": " runs", "1727": "em", "1728": " everywhere", "1729": " stepped", "1730": " join", "1731": " lake", "1732": " basket", "1733": " cup", "1734": "sw", "1735": "outh", "1736": " carrot", "1737": " coll", "1738": " scream", "1739": " plant", "1740": " Daddy", "1741": " heavy", "1742": " cho", "1743": " blank", "1744": " bigger", "1745": " buck", "1746": " closed", "1747": "ises", "1748": " won", "1749": " ph", "1750": " answ", "1751": "br", "1752": " blanket", "1753": " mouth", "1754": "eces", "1755": "ames", "1756": " pieces", "1757": " eating", "1758": "cket", "1759": " welc", "1760": " stre", "1761": " wouldn", "1762": " reach", "1763": " broke", "1764": "eared", "1765": " dangerous", "1766": "gs", "1767": " Molly", "1768": " ce", "1769": " Mr", "1770": "ord", "1771": "fort", "1772": " dolls", "1773": "ming", "1774": " thinks", "1775": " dragon", "1776": " dance", "1777": " asks", "1778": " across", "1779": "Okay", "1780": " chair", "1781": " teac", "1782": " bott", "1783": "Hi", "1784": " pa", "1785": " neigh", "1786": " bar", "1787": " bike", "1788": " pack", "1789": "iting", "1790": " neighb", "1791": " disapp", "1792": " stuck", "1793": "de", "1794": " gif", "1795": " fruit", "1796": " believe", "1797": "cy", "1798": " ve", "1799": " crying", "1800": "phant", "1801": "ier", "1802": " suddenly", "1803": " soup", "1804": " race", "1805": " threw", "1806": "Sure", "1807": " farmer", "1808": " accident", "1809": " elephant", "1810": " dirty", "1811": " monkey", "1812": " heal", "1813": "weet", "1814": " rem", "1815": "ventually", "1816": "ored", "1817": " same", "1818": " pers", "1819": "ead", "1820": "pping", "1821": " gentle", "1822": " free", "1823": " brown", "1824": "Maybe", "1825": " inst", "1826": " bee", "1827": "ix", "1828": " ben", "1829": " win", "1830": " black", "1831": " longer", "1832": " along", "1833": "ible", "1834": " spr", "1835": " clapped", "1836": "Why", "1837": "Finally", "1838": "cked", "1839": " words", "1840": " teacher", "1841": " Fl", "1842": "chool", "1843": " upset", "1844": " piece", "1845": " well", "1846": " cheered", "1847": " sang", "1848": " hit", "1849": "ment", "1850": " bowl", "1851": " doctor", "1852": " bite", "1853": " Jill", "1854": " bucket", "1855": "Mia", "1856": " bath", "1857": " heart", "1858": " caught", "1859": " forget", "1860": " mark", "1861": " butt", "1862": " young", "1863": " sea", "1864": " dry", "1865": " dropped", "1866": " cour", "1867": "ourn", "1868": "ese", "1869": " yard", "1870": " plac", "1871": "bby", "1872": " swings", "1873": " school", "1874": " wings", "1875": "bs", "1876": " explained", "1877": " journ", "1878": " street", "1879": " drink", "1880": " bring", "1881": " juice", "1882": "ung", "1883": " nearby", "1884": " Emma", "1885": " stories", "1886": " smo", "1887": " smart", "1888": " pushed", "1889": " drove", "1890": " tiny", "1891": " pen", "1892": " course", "1893": " mine", "1894": " es", "1895": "aughter", "1896": " year", "1897": " today", "1898": " pocket", "1899": " secret", "1900": " je", "1901": " exp", "1902": " without", "1903": " singing", "1904": " welcome", "1905": " happen", "1906": "to", "1907": " stu", "1908": " fit", "1909": "vel", "1910": "ract", "1911": " bus", "1912": " fairy", "1913": " cray", "1914": " cheese", "1915": " turns", "1916": " jar", "1917": " bush", "1918": "llo", "1919": "bow", "1920": " exploring", "1921": "itting", "1922": " stand", "1923": " seemed", "1924": " lon", "1925": " spoon", "1926": " Finally", "1927": " woke", "1928": " games", "1929": "issed", "1930": " twins", "1931": " trou", "1932": " resp", "1933": " hoped", "1934": " lonely", "1935": " att", "1936": " ant", "1937": " Mama", "1938": "ountain", "1939": "orrow", "1940": " noises", "1941": " hugs", "1942": "yard", "1943": " key", "1944": " inv", "1945": " daughter", "1946": "ail", "1947": " rocks", "1948": " disco", "1949": " su", "1950": " lunch", "1951": "read", "1952": "oun", "1953": "vered", "1954": " backyard", "1955": " suc", "1956": " cow", "1957": " apple", "1958": "ek", "1959": " swam", "1960": " shoes", "1961": " stars", "1962": " shook", "1963": "ittens", "1964": " miss", "1965": "ches", "1966": "fused", "1967": " wish", "1968": " shapes", "1969": " relie", "1970": "urple", "1971": " tower", "1972": "shine", "1973": "ity", "1974": " moved", "1975": " corn", "1976": " though", "1977": " 3", "1978": "umb", "1979": " taking", "1980": " cir", "1981": "ts", "1982": "ape", "1983": " rainbow", "1984": " Tweet", "1985": " throw", "1986": " star", "1987": " bench", "1988": "ocked", "1989": " neck", "1990": " creature", "1991": " bubble", "1992": " late", "1993": " adventures", "1994": "ions", "1995": " owl", "1996": "And", "1997": " whe", "1998": " shell", "1999": " par", "2000": " kite", "2001": " Fluffy", "2002": "ining", "2003": "ilk", "2004": "unt", "2005": " mix", "2006": " lift", "2007": " fence", "2008": " accidentally", "2009": " wise", "2010": " hello", "2011": "pper", "2012": " spin", "2013": " purple", "2014": " onto", "2015": "ten", "2016": "ours", "2017": " sitting", "2018": "idge", "2019": " sunshine", "2020": " cute", "2021": " mat", "2022": "ward", "2023": " whist", "2024": " shop", "2025": " orange", "2026": " dist", "2027": "aughty", "2028": "Lila", "2029": " naughty", "2030": " Sammy", "2031": " nest", "2032": "ose", "2033": "ors", "2034": "lla", "2035": " milk", "2036": "fish", "2037": " phone", "2038": " boun", "2039": " arms", "2040": " af", "2041": " eas", "2042": "ness", "2043": " carry", "2044": " Grandma", "2045": "og", "2046": " instead", "2047": " driver", "2048": " bought", "2049": "Later", "2050": " talked", "2051": " searched", "2052": "gged", "2053": " sunny", "2054": " pig", "2055": " cozy", "2056": "itty", "2057": " feels", "2058": " wondered", "2059": " fan", "2060": " swimming", "2061": " comes", "2062": "uched", "2063": " touched", "2064": " pop", "2065": " Inside", "2066": "ale", "2067": " laughing", "2068": " lucky", "2069": " belong", "2070": " sounds", "2071": "oman", "2072": "let", "2073": " woman", "2074": " journey", "2075": " cave", "2076": " relieved", "2077": " nothing", "2078": " coat", "2079": " cou", "2080": " peace", "2081": " O", "2082": "adow", "2083": " nose", "2084": " busy", "2085": "Bob", "2086": " past", "2087": " apples", "2088": " sick", "2089": " rope", "2090": " patient", "2091": "raid", "2092": " pudd", "2093": " inc", "2094": " act", "2095": " watching", "2096": " branch", "2097": " afraid", "2098": "ider", "2099": " tom", "2100": " ret", "2101": " days", "2102": "cing", "2103": " Mary", "2104": " farm", "2105": " band", "2106": " huge", "2107": " Thank", "2108": "thday", "2109": "ator", "2110": " exciting", "2111": " danced", "2112": " war", "2113": " Soon", "2114": "blem", "2115": "ball", "2116": " zoom", "2117": " gigg", "2118": " vill", "2119": " problem", "2120": " mad", "2121": " forever", "2122": " collect", "2123": "ped", "2124": "irt", "2125": " minut", "2126": " wra", "2127": "ho", "2128": " life", "2129": " knee", "2130": "ces", "2131": "mp", "2132": "cer", "2133": "arp", "2134": "Do", "2135": " return", "2136": " king", "2137": " asleep", "2138": " sharp", "2139": " rel", "2140": "eth", "2141": " power", "2142": " holding", "2143": " healthy", "2144": " fing", "2145": " prot", "2146": " Mittens", "2147": " meet", "2148": " spotted", "2149": " organ", "2150": " clever", "2151": "alm", "2152": " letter", "2153": " gather", "2154": "ere", "2155": "Of", "2156": " storm", "2157": " round", "2158": " protect", "2159": " gift", "2160": "amed", "2161": " mail", "2162": " birthday", "2163": " Jen", "2164": " pres", "2165": " saf", "2166": " neighbor", "2167": "epend", "2168": " takes", "2169": "sc", "2170": " ear", "2171": " comfort", "2172": " rep", "2173": " ent", "2174": " person", "2175": " smiling", "2176": " pointed", "2177": " gently", "2178": " With", "2179": "ular", "2180": "owed", "2181": "col", "2182": "Every", "2183": " tasty", "2184": " spo", "2185": " Jimmy", "2186": "sting", "2187": " plane", "2188": "itten", "2189": "itch", "2190": "hin", "2191": " pill", "2192": " pass", "2193": " honey", "2194": " tasted", "2195": " smelled", "2196": " matter", "2197": " adm", "2198": "ove", "2199": "nic", "2200": " shining", "2201": " eag", "2202": "Hey", "2203": " places", "2204": " hope", "2205": " respect", "2206": " picnic", "2207": " kick", "2208": " bottle", "2209": " Ch", "2210": " supp", "2211": " blew", "2212": " appeared", "2213": "Tommy", "2214": " Come", "2215": "board", "2216": " spider", "2217": " intere", "2218": " cheer", "2219": " wearing", "2220": " present", "2221": "ize", "2222": "ert", "2223": " trouble", "2224": " mist", "2225": " trip", "2226": " quest", "2227": " pract", "2228": " kiss", "2229": "ond", "2230": " tightly", "2231": " loves", "2232": " ash", "2233": "gg", "2234": "arge", "2235": " sur", "2236": " spread", "2237": "umber", "2238": "ones", "2239": "aur", "2240": " wide", "2241": " feather", "2242": " splas", "2243": "ont", "2244": "ndp", "2245": " whole", "2246": " later", "2247": " bread", "2248": " anyone", "2249": "ella", "2250": "Molly", "2251": " rec", "2252": " des", "2253": "oph", "2254": " road", "2255": "cean", "2256": "In", "2257": " ocean", "2258": " giant", "2259": "els", "2260": " puzz", "2261": " cookie", "2262": "\u00c5\u0093I", "2263": " screamed", "2264": " path", "2265": " pan", "2266": " confused", "2267": " clouds", "2268": "eb", "2269": " impress", "2270": " front", "2271": " Go", "2272": " seat", "2273": "lex", "2274": " which", "2275": " lay", "2276": "la", "2277": " thin", "2278": " teach", "2279": "erly", "2280": "ungle", "2281": " di", "2282": " answer", "2283": "ssed", "2284": " ap", "2285": "ub", "2286": "hile", "2287": " promise", "2288": " large", "2289": " jungle", "2290": " ser", "2291": " ber", "2292": "oose", "2293": "ndpa", "2294": " wild", "2295": " mach", "2296": " button", "2297": " bark", "2298": "Good", "2299": " village", "2300": " snake", "2301": " myster", "2302": " hor", "2303": " Emily", "2304": "Come", "2305": " tool", "2306": " puts", "2307": " last", "2308": " imag", "2309": " Jake", "2310": "lebr", "2311": "Lucy", "2312": " tid", "2313": " slid", "2314": " eventually", "2315": " ban", "2316": " wave", "2317": " live", "2318": " crayons", "2319": " chased", "2320": " celebr", "2321": " Everywhere", "2322": "Just", "2323": " write", "2324": " spent", "2325": " gives", "2326": "unk", "2327": "ife", "2328": " foot", "2329": " delight", "2330": " decor", "2331": " sol", "2332": " sandw", "2333": " dirt", "2334": " treats", "2335": " talking", "2336": " Jenny", "2337": "ching", "2338": " waiting", "2339": " snowman", "2340": " interesting", "2341": " hiding", "2342": " cart", "2343": "ony", "2344": " taste", "2345": " shelf", "2346": " hon", "2347": "een", "2348": "Jim", "2349": " step", "2350": "Mum", "2351": " helpful", "2352": " feet", "2353": " val", "2354": " shy", "2355": " goes", "2356": " stood", "2357": " shr", "2358": " emb", "2359": " building", "2360": " stret", "2361": " oven", "2362": " lovely", "2363": " ducks", "2364": " corner", "2365": "cks", "2366": " wash", "2367": " spe", "2368": " rolled", "2369": " pretended", "2370": " rude", "2371": "old", "2372": " zoo", "2373": " tidy", "2374": " teeth", "2375": " puddle", "2376": " pile", "2377": " jumping", "2378": " calm", "2379": "ipe", "2380": "iger", "2381": "Mama", "2382": " bugs", "2383": " ashamed", "2384": "ina", "2385": " bat", "2386": " Re", "2387": " stra", "2388": " ob", "2389": " whistle", "2390": " banan", "2391": " St", "2392": "not", "2393": " net", "2394": " forgive", "2395": " prince", "2396": "ener", "2397": " shirt", "2398": " sel", "2399": " embar", "2400": " coo", "2401": "umpy", "2402": " sparkly", "2403": " remind", "2404": " success", "2405": " sug", "2406": " mind", "2407": " embarra", "2408": " cannot", "2409": " cross", "2410": "Soon", "2411": " worm", "2412": " sharing", "2413": " peaceful", "2414": " mot", "2415": " fold", "2416": " wore", "2417": " mountain", "2418": " blow", "2419": "lice", "2420": " furry", "2421": " bell", "2422": " ign", "2423": " grab", "2424": "ometimes", "2425": "als", "2426": " whenever", "2427": " pour", "2428": "vous", "2429": "llie", "2430": " sugar", "2431": " push", "2432": " machine", "2433": " breath", "2434": " creative", "2435": " chick", "2436": "ned", "2437": "St", "2438": " tries", "2439": " stir", "2440": " dolp", "2441": " bal", "2442": "Now", "2443": " lad", "2444": " Le", "2445": "ult", "2446": "ork", "2447": " spray", "2448": " sal", "2449": " pool", "2450": " med", "2451": " gener", "2452": " ship", "2453": "isa", "2454": "ian", "2455": " selfish", "2456": " hel", "2457": " hum", "2458": " messy", "2459": " har", "2460": " faces", "2461": " ple", "2462": " gold", "2463": " chocol", "2464": " Some", "2465": " How", "2466": " '", "2467": "Please", "2468": " pillow", "2469": " minutes", "2470": "ighed", "2471": "aking", "2472": "My", "2473": " van", "2474": " tun", "2475": " missed", "2476": " fixed", "2477": " fighting", "2478": "oin", "2479": " fig", "2480": " embarrassed", "2481": " tomorrow", "2482": " meant", "2483": " drive", "2484": "Sarah", "2485": " spicy", "2486": " ner", "2487": " ladder", "2488": " knowing", "2489": " hours", "2490": " ca", "2491": " Please", "2492": "ital", "2493": " horse", "2494": "ato", "2495": " ug", "2496": " trust", "2497": " Just", "2498": "spital", "2499": " ugly", "2500": " hospital", "2501": " nervous", "2502": " easy", "2503": " chew", "2504": " bedroom", "2505": " thankful", "2506": " rob", "2507": " carrots", "2508": "elly", "2509": "Dad", "2510": " grew", "2511": " couch", "2512": " colour", "2513": " barked", "2514": " understood", "2515": " taught", "2516": " nut", "2517": " meadow", "2518": " disappoin", "2519": "assed", "2520": "ano", "2521": " passed", "2522": " often", "2523": " class", "2524": " landed", "2525": " knocked", "2526": "ird", "2527": " mud", "2528": " mic", "2529": " fear", "2530": " coin", "2531": "work", "2532": " deter", "2533": " returned", "2534": " reg", "2535": " determ", "2536": " hur", "2537": " finish", "2538": "izz", "2539": " tea", "2540": " smooth", "2541": "mo", "2542": " stuff", "2543": " mov", "2544": " generous", "2545": "isp", "2546": "To", "2547": " drum", "2548": " On", "2549": "obby", "2550": " robot", "2551": " bubbles", "2552": " these", "2553": " seed", "2554": " glass", "2555": " disappointed", "2556": "ground", "2557": " ring", "2558": " moon", "2559": " hears", "2560": " chocolate", "2561": " carried", "2562": " card", "2563": " snacks", "2564": " leaf", "2565": " fancy", "2566": " circ", "2567": "ustr", "2568": "dle", "2569": " spend", "2570": " songs", "2571": " crab", "2572": " Ann", "2573": "pack", "2574": "osaur", "2575": "ecially", "2576": " pir", "2577": " sold", "2578": " sleepy", "2579": " honest", "2580": " bridge", "2581": " Even", "2582": " paw", "2583": " mir", "2584": " Br", "2585": "pecially", "2586": "izzy", "2587": " wolf", "2588": " especially", "2589": " dinosaur", "2590": " chest", "2591": " av", "2592": " Why", "2593": "ory", "2594": " map", "2595": " group", "2596": " gathered", "2597": " gas", "2598": " change", "2599": " splash", "2600": " sour", "2601": " poor", "2602": " waves", "2603": " mysterious", "2604": " forward", "2605": " clown", "2606": "ror", "2607": " frustr", "2608": " craw", "2609": " body", "2610": " whisp", "2611": " twirl", "2612": " string", "2613": " smelly", "2614": " rad", "2615": " pin", "2616": " ok", "2617": " fake", "2618": " Together", "2619": "sist", "2620": " scar", "2621": " neckl", "2622": " gate", "2623": " cand", "2624": " Kitty", "2625": "Billy", "2626": " motor", "2627": "ying", "2628": "urse", "2629": "ote", "2630": " shore", "2631": " jew", "2632": " weak", "2633": " grumpy", "2634": " finger", "2635": " sack", "2636": " polite", "2637": " kitten", "2638": " glue", "2639": "uce", "2640": "airs", "2641": " number", "2642": " mirror", "2643": " esc", "2644": "most", "2645": " vase", "2646": " sheep", "2647": " plants", "2648": " berries", "2649": "den", "2650": "Be", "2651": " jelly", "2652": "itter", "2653": "There", "2654": " scr", "2655": " puzzle", "2656": " necklace", "2657": " gray", "2658": " emp", "2659": " Their", "2660": "usie", "2661": " plate", "2662": " maybe", "2663": " frustrated", "2664": " empty", "2665": " almost", "2666": "port", "2667": "orry", "2668": "ensive", "2669": " thick", "2670": " skipped", "2671": " jam", "2672": "aged", "2673": " hidden", "2674": " expensive", "2675": " determined", "2676": " closet", "2677": " Teddy", "2678": " legs", "2679": " lit", "2680": " hopping", "2681": " drew", "2682": " bored", "2683": "ates", "2684": " sticks", "2685": " Sometimes", "2686": " police", "2687": " ones", "2688": " fruits", "2689": " birdie", "2690": " Don", "2691": " At", "2692": "ots", "2693": "aul", "2694": " wis", "2695": " tick", "2696": " stone", "2697": " line", "2698": " figure", "2699": " dogs", "2700": " bake", "2701": " aunt", "2702": "Jane", "2703": " sight", "2704": " moving", "2705": " content", "2706": " cries", "2707": " Brown", "2708": " Be", "2709": "box", "2710": "?\".", "2711": " splashed", "2712": " saved", "2713": " powerful", "2714": " packed", "2715": " cloth", "2716": " branches", "2717": "ested", "2718": " yelled", "2719": " feed", "2720": "oop", "2721": "kin", "2722": "iddle", "2723": "dge", "2724": "Where", "2725": " taken", "2726": " tiger", "2727": " spoil", "2728": " pay", "2729": " exam", "2730": " crane", "2731": " Bella", "2732": "'d", "2733": " hang", "2734": " flag", "2735": " discovered", "2736": " answered", "2737": " Leo", "2738": "ush", "2739": " standing", "2740": " seek", "2741": " save", "2742": " pray", "2743": " jog", "2744": " excite", "2745": " dolphin", "2746": " jack", "2747": "rag", "2748": "era", "2749": "Are", "2750": " flut", "2751": "getable", "2752": " lock", "2753": " incred", "2754": " excitement", "2755": " boring", "2756": "ola", "2757": " wip", "2758": " soap", "2759": " sighed", "2760": " pleased", "2761": " jacket", "2762": " fis", "2763": " fill", "2764": " Mum", "2765": "light", "2766": " wrote", "2767": " sugg", "2768": " organized", "2769": " middle", "2770": " eld", "2771": " balloons", "2772": "que", "2773": " sailed", "2774": "Their", "2775": " tells", "2776": " vegetable", "2777": " stones", "2778": " spun", "2779": " oy", "2780": " board", "2781": "lies", "2782": "iness", "2783": " working", "2784": " ind", "2785": "lower", "2786": "iff", "2787": "alk", "2788": "Stop", "2789": " scarf", "2790": " parrot", "2791": "body", "2792": "asing", "2793": " wagged", "2794": " tears", "2795": " measure", "2796": " comfortable", "2797": " clap", "2798": " true", "2799": " swan", "2800": " smoke", "2801": " leg", "2802": " incredible", "2803": " fright", "2804": " feathers", "2805": " drop", "2806": "ual", "2807": "ggs", "2808": " tie", "2809": " pus", "2810": " movie", "2811": " lose", "2812": " eager", "2813": " cap", "2814": "oof", "2815": "fic", "2816": " rid", "2817": " eggs", "2818": " covered", "2819": " cop", "2820": " record", "2821": " lem", "2822": " grap", "2823": " fil", "2824": " disappeared", "2825": " ord", "2826": " giggled", "2827": " ext", "2828": " TV", "2829": " Bl", "2830": "corn", "2831": " yourself", "2832": " rare", "2833": " pri", "2834": " ham", "2835": " eng", "2836": " whale", "2837": " team", "2838": " knife", "2839": " Lisa", "2840": " Johnny", "2841": "zed", "2842": " wrap", "2843": " test", "2844": " questions", "2845": " libr", "2846": " dizzy", "2847": " bone", "2848": "iv", "2849": "apping", "2850": "Jimmy", "2851": " straw", "2852": " stamp", "2853": " noisy", "2854": " licked", "2855": " lying", "2856": " kindness", "2857": " drawing", "2858": " diffic", "2859": "ately", "2860": " wagon", "2861": " rocket", "2862": " popcorn", "2863": " grown", "2864": " burn", "2865": "Sally", "2866": " wand", "2867": " sword", "2868": " lifted", "2869": " happening", "2870": " extra", "2871": " balance", "2872": " batter", "2873": " anc", "2874": " End", "2875": "ha", "2876": "Sorry", "2877": " wander", "2878": " track", "2879": " smaller", "2880": " mistake", "2881": " fat", "2882": " become", "2883": " Mark", "2884": " Ella", "2885": "selves", "2886": "ating", "2887": " toast", "2888": " managed", "2889": " harm", "2890": " difficult", "2891": " bathroom", "2892": " Peter", "2893": " twist", "2894": " ruined", "2895": " offered", "2896": " match", "2897": " ancient", "2898": "illi", "2899": " gar", "2900": " distance", "2901": " playground", "2902": " lazy", "2903": " dancing", "2904": " adventur", "2905": "ormal", "2906": "af", "2907": " crown", "2908": " cleaned", "2909": " calling", "2910": " Ba", "2911": " walks", "2912": " sell", "2913": " once", "2914": " frightened", "2915": " boss", "2916": "erri", "2917": "emo", "2918": " mask", "2919": " fluffy", "2920": " yog", "2921": " picks", "2922": " normal", "2923": " frag", "2924": " eye", "2925": " drank", "2926": " dest", "2927": " circle", "2928": " adventurous", "2929": " Z", "2930": "issors", "2931": "ict", "2932": "Spot", "2933": " trunk", "2934": " tent", "2935": " shells", "2936": " scissors", "2937": " press", "2938": " kissed", "2939": " gets", "2940": " enjoying", "2941": " elderly", "2942": " check", "2943": "ages", "2944": " toug", "2945": " terri", "2946": " steal", "2947": "ready", "2948": "ete", "2949": "Me", "2950": " study", "2951": " juicy", "2952": " already", "2953": " Little", "2954": "erp", "2955": " towel", "2956": " pizz", "2957": " louder", "2958": " horn", "2959": " circles", "2960": " allig", "2961": " tough", "2962": " tele", "2963": " slipped", "2964": " rose", "2965": " roar", "2966": " lead", "2967": " famous", "2968": " cheerful", "2969": " arg", "2970": " Rex", "2971": "ipper", "2972": " sweetie", "2973": " fool", "2974": " engine", "2975": " deer", "2976": " dish", "2977": " dig", "2978": " barn", "2979": " against", "2980": "Joe", "2981": " yours", "2982": " spinning", "2983": " needs", "2984": " father", "2985": " cover", "2986": " bags", "2987": " ed", "2988": "anged", "2989": "amond", "2990": "Sue", "2991": " yarn", "2992": " sandwich", "2993": " independ", "2994": " giving", "2995": " fragile", "2996": " diamond", "2997": " aw", "2998": "cept", "2999": "Who", "3000": " twig", "3001": " suggested", "3002": " nosy", "3003": " lemon", "3004": " hurts", "3005": "orge", "3006": "ination", "3007": "iest", "3008": "ache", "3009": " relax", "3010": " realised", "3011": " nod", "3012": " hose", "3013": " hammer", "3014": " frown", "3015": " boxes", "3016": " bloom", "3017": " weird", "3018": " mod", "3019": " crack", "3020": " alligator", "3021": " added", "3022": "rage", "3023": "oot", "3024": "Gra", "3025": "Amy", "3026": " vegetables", "3027": " shake", "3028": " learning", "3029": "elp", "3030": " trap", "3031": " stubb", "3032": " melt", "3033": " collar", "3034": " add", "3035": " Susie", "3036": " Bobby", "3037": "ique", "3038": " stubborn", "3039": " search", "3040": " pizza", "3041": " pump", "3042": " loudly", "3043": " independent", "3044": " chicken", "3045": " borrow", "3046": "illiant", "3047": "erpill", "3048": " strawber", "3049": " snee", "3050": " ref", "3051": " queen", "3052": " invited", "3053": " foolish", "3054": " flash", "3055": " decide", "3056": " caterpill", "3057": " asking", "3058": " Rose", "3059": "urkey", "3060": "gy", "3061": " unique", "3062": " stri", "3063": " pee", "3064": " knight", "3065": " guit", "3066": " escape", "3067": " depend", "3068": " comb", "3069": " colourful", "3070": " clear", "3071": " buttons", "3072": " brilliant", "3073": " boys", "3074": " Tweety", "3075": " skin", "3076": " saying", "3077": " rode", "3078": " rich", "3079": " garage", "3080": " Bu", "3081": "ured", "3082": "dom", "3083": "Help", "3084": " mummy", "3085": " beak", "3086": "edient", "3087": "eorge", "3088": "aw", "3089": " unus", "3090": " turkey", "3091": " oyster", "3092": " wiped", "3093": " week", "3094": " unusual", "3095": " rubb", "3096": " regular", "3097": " patter", "3098": " guitar", "3099": " fountain", "3100": " counted", "3101": " chase", "3102": " OK", "3103": "mbre", "3104": "land", "3105": " walls", "3106": " umbre", "3107": " successful", "3108": " shows", "3109": " pattern", "3110": " lights", "3111": " jewel", "3112": " fork", "3113": " dreamed", "3114": " banana", "3115": "ray", "3116": "inal", "3117": "imed", "3118": "cil", "3119": " tools", "3120": " swe", "3121": " safely", "3122": " pencil", "3123": " low", "3124": " cryst", "3125": "ceed", "3126": "Well", "3127": " tape", "3128": " stream", "3129": " resc", "3130": " market", "3131": " impressed", "3132": " harder", "3133": " guess", "3134": " bottom", "3135": " above", "3136": "olog", "3137": "illa", "3138": "iginal", "3139": "anut", "3140": " waff", "3141": " peanut", "3142": " patch", "3143": " notice", "3144": " nods", "3145": " crawled", "3146": " caterpillar", "3147": "umbled", "3148": "na", "3149": " tire", "3150": " task", "3151": " tank", "3152": " solve", "3153": " load", "3154": " gun", "3155": " compet", "3156": " apolog", "3157": "hip", "3158": "fast", "3159": "arl", "3160": "Mummy", "3161": "How", "3162": " shone", "3163": " original", "3164": " glow", "3165": " fier", "3166": " edge", "3167": " ears", "3168": " dependable", "3169": " breakfast", "3170": " brush", "3171": " bitter", "3172": " admired", "3173": " Nemo", "3174": " Fin", "3175": " Blue", "3176": " No", "3177": "uth", "3178": "und", "3179": " stronger", "3180": " clay", "3181": " bossy", "3182": " If", "3183": "aser", "3184": " scrat", "3185": " picking", "3186": " medic", "3187": " knows", "3188": " joke", "3189": " grandpa", "3190": " cudd", "3191": " boats", "3192": " bald", "3193": "uggled", "3194": " succeed", "3195": " raft", "3196": " penny", "3197": " obedient", "3198": " library", "3199": " lean", "3200": " humble", "3201": " cone", "3202": "head", "3203": "Re", "3204": "Here", "3205": " tray", "3206": " terrible", "3207": " square", "3208": " sounded", "3209": " sauce", "3210": " proudly", "3211": " numb", "3212": " fierce", "3213": " crystal", "3214": " Bear", "3215": "inary", "3216": "Jill", "3217": " witch", "3218": " happiness", "3219": " handed", "3220": " fridge", "3221": " Lola", "3222": "fa", "3223": "ention", "3224": " wheel", "3225": " umbrella", "3226": " raven", "3227": " rough", "3228": " mighty", "3229": " joined", "3230": " chose", "3231": " changed", "3232": "imp", "3233": "arry", "3234": " tag", "3235": " squee", "3236": " ow", "3237": " medicine", "3238": " helps", "3239": " firework", "3240": " finding", "3241": " cleaning", "3242": " cri", "3243": " Bill", "3244": "met", "3245": "azz", "3246": " surf", "3247": " playful", "3248": " locked", "3249": " goat", "3250": " competit", "3251": " compass", "3252": " accept", "3253": "\u00c5\u0093Let", "3254": "uring", "3255": "kn", "3256": "ext", "3257": " valu", "3258": " sy", "3259": " parade", "3260": " mixed", "3261": " helmet", "3262": " guard", "3263": " discover", "3264": " crayon", "3265": " chir", "3266": " butterflies", "3267": " beet", "3268": " balls", "3269": " Mar", "3270": " Ellie", "3271": " Brownie", "3272": "ud", "3273": "squ", "3274": "ophie", "3275": "ject", "3276": "ature", "3277": "Em", "3278": " stove", "3279": " raced", "3280": " persist", "3281": " nicely", "3282": " mole", "3283": " march", "3284": " laughs", "3285": " kinds", "3286": " island", "3287": " gum", "3288": " falls", "3289": " cost", "3290": " Baby", "3291": "squit", "3292": "squito", "3293": "ience", "3294": "Alice", "3295": " trump", "3296": " serious", "3297": " mosquito", "3298": " goose", "3299": " coins", "3300": " cage", "3301": "elon", "3302": " unl", "3303": " trumpet", "3304": " numbers", "3305": " guil", "3306": " flex", "3307": " explored", "3308": " excla", "3309": " choose", "3310": " cro", "3311": " brothers", "3312": "ormous", "3313": "iew", "3314": " view", "3315": " practice", "3316": " moms", "3317": " fireman", "3318": " enormous", "3319": " Mrs", "3320": " icy", "3321": "wards", "3322": " volc", "3323": " valuable", "3324": " sup", "3325": " pointing", "3326": " means", "3327": " guilty", "3328": " flexible", "3329": " exclaimed", "3330": "yal", "3331": "known", "3332": "ision", "3333": " volcano", "3334": " useful", "3335": " phot", "3336": " pipe", "3337": " favour", "3338": " crazy", "3339": " cam", "3340": " My", "3341": "omed", "3342": "llip", "3343": "llipop", "3344": " wake", "3345": " seal", "3346": " scare", "3347": " popular", "3348": " marble", "3349": " lollipop", "3350": " forth", "3351": " flashlight", "3352": " compassion", "3353": " city", "3354": " brightly", "3355": " allowed", "3356": "redient", "3357": "ingredient", "3358": "erry", "3359": "!\".", "3360": " unknown", "3361": " stat", "3362": " shoot", "3363": " shel", "3364": " sil", "3365": " hats", "3366": " hunt", "3367": " favourite", "3368": " dull", "3369": " belonged", "3370": " ingredient", "3371": " U", "3372": " twirled", "3373": " super", "3374": " seeds", "3375": " pil", "3376": " loyal", "3377": " kicked", "3378": " dreams", "3379": " brace", "3380": " Whenever", "3381": "time", "3382": "ophone", "3383": "ations", "3384": " whispered", "3385": " ways", "3386": " trucks", "3387": " sofa", "3388": " showing", "3389": " shark", "3390": " sadly", "3391": " repe", "3392": " poured", "3393": " pirate", "3394": " impressive", "3395": " harmless", "3396": " fine", "3397": " delicate", "3398": " bees", "3399": " anx", "3400": " Mike", "3401": "arth", "3402": "aroo", "3403": "angaroo", "3404": "ado", "3405": "aff", "3406": "Benny", "3407": " using", "3408": " turt", "3409": " tied", "3410": " shape", "3411": " rushed", "3412": " persistent", "3413": " handle", "3414": " grace", "3415": " enc", "3416": " deliver", "3417": " bushes", "3418": " office", "3419": " kangaroo", "3420": " gor", "3421": " anxious", "3422": " ang", "3423": " Sp", "3424": "iable", "3425": "alous", "3426": "Go", "3427": " wrapped", "3428": " spell", "3429": " potato", "3430": " jealous", "3431": " While", "3432": "urtain", "3433": " reliable", "3434": " log", "3435": " four", "3436": " coal", "3437": " curtain", "3438": "\u00c5\u0093Yes", "3439": "mbol", "3440": "aches", "3441": "Daisy", "3442": " sudden", "3443": " painted", "3444": " cere", "3445": " Toby", "3446": " Pe", "3447": "uddy", "3448": "ouses", "3449": "gu", "3450": " those", "3451": " tummy", "3452": " symbol", "3453": " metal", "3454": " cush", "3455": " camera", "3456": " beetle", "3457": "ilt", "3458": " houses", "3459": " gorilla", "3460": " delighted", "3461": " celebrate", "3462": "keep", "3463": "irsty", "3464": " warned", "3465": " travel", "3466": " tooth", "3467": " space", "3468": " soldier", "3469": " shiver", "3470": " rubbed", "3471": " reward", "3472": " print", "3473": " motorcy", "3474": " marry", "3475": " driving", "3476": "upid", "3477": "ief", "3478": "cod", "3479": "cut", "3480": "arlie", "3481": " tunn", "3482": " tor", "3483": " thinking", "3484": " temp", "3485": " son", "3486": " hung", "3487": " hero", "3488": " growing", "3489": " excitedly", "3490": " carp", "3491": " Pete", "3492": " Bobo", "3493": "icycle", "3494": "ipp", "3495": "cu", "3496": "While", "3497": " yet", "3498": " vine", "3499": " reminded", "3500": " prep", "3501": " ordinary", "3502": " hay", "3503": " gasped", "3504": " flute", "3505": " crocod", "3506": " acorn", "3507": " spoiled", "3508": " pup", "3509": " hurry", "3510": " creatures", "3511": " cur", "3512": " amb", "3513": " Mandy", "3514": " Bet", "3515": "ugged", "3516": "coa", "3517": " wheat", "3518": " times", "3519": " support", "3520": " stupid", "3521": " skull", "3522": " shine", "3523": " resist", "3524": " rice", "3525": " missing", "3526": " mis", "3527": " law", "3528": " ingredients", "3529": "\u00c5\u0093What", "3530": "loo", "3531": "ery", "3532": "arsh", "3533": "aid", "3534": " washed", "3535": " trick", "3536": " spilled", "3537": " sett", "3538": " scoot", "3539": " mule", "3540": " moder", "3541": " meal", "3542": " filthy", "3543": " dove", "3544": " case", "3545": " bounce", "3546": " Tweetie", "3547": " Ducky", "3548": "\u00c5\u0093Let\u00c3\u00a2", "3549": " word", "3550": " weal", "3551": " thirsty", "3552": " steps", "3553": " stumbled", "3554": " soar", "3555": " seem", "3556": " lively", "3557": " lab", "3558": " hairy", "3559": " hoop", "3560": " fre", "3561": " crawl", "3562": " cereal", "3563": " carpet", "3564": " bracelet", "3565": " badly", "3566": " base", "3567": " Fr", "3568": " Dave", "3569": "ither", "3570": " wool", "3571": " truth", "3572": " placed", "3573": " nuts", "3574": " goal", "3575": " early", "3576": " disg", "3577": " decorate", "3578": " compl", "3579": " cheap", "3580": " backpack", "3581": "\u00e2\u0082\u00ac\u00e2\u0080", "3582": "usting", "3583": "ices", "3584": "gging", "3585": "cream", "3586": "Ow", "3587": " themselves", "3588": " telling", "3589": " swinging", "3590": " sparkled", "3591": " scatter", "3592": " scale", "3593": " news", "3594": " helpless", "3595": " env", "3596": " clum", "3597": " carrying", "3598": " bump", "3599": "ric", "3600": "ines", "3601": " sne", "3602": " peeked", "3603": " pale", "3604": " friendship", "3605": " falling", "3606": " doesn", "3607": " compassionate", "3608": " comput", "3609": " careless", "3610": "vice", "3611": "com", "3612": " turtle", "3613": " stage", "3614": " send", "3615": " pige", "3616": " pebble", "3617": " mem", "3618": " fingers", "3619": " cube", "3620": " courage", "3621": " chasing", "3622": " chalk", "3623": " Everything", "3624": "bled", "3625": " sleeping", "3626": " shaking", "3627": " sink", "3628": " neighbour", "3629": " modern", "3630": " micr", "3631": " disgusting", "3632": " clumsy", "3633": " bicycle", "3634": "ulance", "3635": "iches", "3636": "gest", "3637": " triang", "3638": " spoke", "3639": " practiced", "3640": " nail", "3641": " hook", "3642": " ending", "3643": " dead", "3644": " computer", "3645": " cher", "3646": " bul", "3647": " biggest", "3648": " ambulance", "3649": "keeper", "3650": "ibb", "3651": " wallet", "3652": " station", "3653": " package", "3654": " microphone", "3655": " lamp", "3656": " cushion", "3657": " crocodile", "3658": " char", "3659": " Today", "3660": "under", "3661": " thoughtful", "3662": " pumpkin", "3663": " pengu", "3664": " jolly", "3665": " costum", "3666": " Alex", "3667": "imi", "3668": " univer", "3669": " statue", "3670": " stairs", "3671": " question", "3672": " pony", "3673": " opens", "3674": " ol", "3675": " knock", "3676": " intell", "3677": " grand", "3678": " five", "3679": " dreaming", "3680": " dough", "3681": " brighter", "3682": " bounced", "3683": "isk", "3684": "hino", "3685": "Everyone", "3686": " wealthy", "3687": " wine", "3688": " shoe", "3689": " perm", "3690": " pepper", "3691": " painting", "3692": " intellig", "3693": " elev", "3694": " cocoa", "3695": " beauty", "3696": " Your", "3697": " Alice", "3698": "ucked", "3699": "noon", "3700": "ans", "3701": " torn", "3702": " starts", "3703": " suit", "3704": " neat", "3705": " nature", "3706": " mild", "3707": " happier", "3708": " elevator", "3709": " afternoon", "3710": "ti", "3711": "orant", "3712": "illie", "3713": "gen", "3714": "atient", "3715": " ten", "3716": " speed", "3717": " searching", "3718": " reading", "3719": " rece", "3720": " ped", "3721": " jet", "3722": " harsh", "3723": " basketball", "3724": " barber", "3725": " Red", "3726": "aulif", "3727": "awn", "3728": "See", "3729": " stack", "3730": " slides", "3731": " sandwiches", "3732": " riding", "3733": " magn", "3734": " leaving", "3735": " fresh", "3736": " design", "3737": " cupboard", "3738": " clock", "3739": " candle", "3740": " Mummy", "3741": " Give", "3742": "oppy", "3743": "auliflower", "3744": " tunnel", "3745": " ticket", "3746": " shocked", "3747": " respectful", "3748": " jumps", "3749": " haircut", "3750": " encou", "3751": " ener", "3752": " cooking", "3753": "reen", "3754": "ailable", "3755": "Give", "3756": " yawn", "3757": " wheels", "3758": " value", "3759": " thief", "3760": " sorts", "3761": " sle", "3762": " prize", "3763": " may", "3764": " impatient", "3765": " fort", "3766": " create", "3767": " alert", "3768": "ye", "3769": "iron", "3770": "ince", "3771": "het", "3772": "Mary", "3773": " scooter", "3774": " salad", "3775": " sent", "3776": " rescue", "3777": " mush", "3778": " monkeys", "3779": " melon", "3780": " itself", "3781": " intelligent", "3782": " gem", "3783": " destro", "3784": " comet", "3785": " cauliflower", "3786": " camp", "3787": " bent", "3788": "iling", "3789": "hetti", "3790": "anger", "3791": "aghetti", "3792": "az", "3793": " scold", "3794": " roof", "3795": " rhino", "3796": " motorcycle", "3797": " micro", "3798": " ignorant", "3799": " graceful", "3800": " exper", "3801": " dug", "3802": " barking", "3803": " bananas", "3804": " available", "3805": "ummer", "3806": "scope", "3807": "hood", "3808": " stretched", "3809": " spaghetti", "3810": " paid", "3811": " microscope", "3812": " fearful", "3813": " earth", "3814": " bull", "3815": " boots", "3816": " behave", "3817": " avo", "3818": " anywhere", "3819": " agree", "3820": " Sn", "3821": " Kim", "3822": " George", "3823": "io", "3824": "ebook", "3825": "If", "3826": " stops", "3827": " sniff", "3828": " pigeon", "3829": " perform", "3830": " older", "3831": " notebook", "3832": " mushroom", "3833": " further", "3834": " envious", "3835": " advice", "3836": " Eventually", "3837": "ubby", "3838": "orable", "3839": "fortable", "3840": "comfortable", "3841": "ats", "3842": " yogurt", "3843": " vide", "3844": " uncomfortable", "3845": " tomato", "3846": " thunder", "3847": " temple", "3848": " shouting", "3849": " prov", "3850": " pun", "3851": " object", "3852": " nurse", "3853": " meeting", "3854": " drawer", "3855": " clapping", "3856": " built", "3857": " arrow", "3858": " Cl", "3859": "\u00c5\u0093It", "3860": "ues", "3861": "ef", "3862": " switch", "3863": " skip", "3864": " loop", "3865": " counting", "3866": " cooked", "3867": " chubby", "3868": " adorable", "3869": " Tony", "3870": "opter", "3871": "istol", "3872": "icopter", "3873": "enry", "3874": "arian", "3875": " troubled", "3876": " stared", "3877": " snuggled", "3878": " shut", "3879": " quite", "3880": " pistol", "3881": " helicopter", "3882": " giggle", "3883": " fisher", "3884": " blowing", "3885": " Grandpa", "3886": "par", "3887": "ooped", "3888": "ips", "3889": "host", "3890": " treasures", "3891": " stirred", "3892": " pushing", "3893": " passport", "3894": " nowhere", "3895": " marched", "3896": " forgave", "3897": " destroy", "3898": " competitive", "3899": " Sophie", "3900": "tter", "3901": "play", "3902": "opard", "3903": "oe", "3904": "kelet", "3905": "htub", "3906": "anic", "3907": "aked", "3908": "Yay", "3909": " triangle", "3910": " separ", "3911": " rubber", "3912": " repair", "3913": " reef", "3914": " gir", "3915": " ghost", "3916": " football", "3917": " envel", "3918": " breat", "3919": " bathtub", "3920": " angel", "3921": "uct", "3922": "ebra", "3923": "ctus", "3924": "chanic", "3925": "Daddy", "3926": " zebra", "3927": " shouldn", "3928": " nobody", "3929": " names", "3930": " mill", "3931": " leopard", "3932": " led", "3933": " holds", "3934": " given", "3935": " enth", "3936": " barrel", "3937": " bandage", "3938": " anyway", "3939": " Sh", "3940": "year", "3941": "ube", "3942": "ives", "3943": "ceros", "3944": " speak", "3945": " shield", "3946": " ribb", "3947": " por", "3948": " pand", "3949": " otter", "3950": " musician", "3951": " mechanic", "3952": " don\u00c3\u00a2", "3953": " display", "3954": " disag", "3955": " cactus", "3956": " cab", "3957": " bulb", "3958": " Betsy", "3959": "xy", "3960": "oomy", "3961": "ikes", "3962": "eath", "3963": "Ch", "3964": " windows", "3965": " tube", "3966": " summer", "3967": " skelet", "3968": " rhinoceros", "3969": " purse", "3970": " knob", "3971": " gifted", "3972": " didn\u00c3\u00a2", "3973": " couldn\u00c3\u00a2", "3974": " colours", "3975": " cartoon", "3976": " ahead", "3977": "heart", "3978": "gl", "3979": "apa", "3980": " sweater", "3981": " shovel", "3982": " screw", "3983": " size", "3984": " raining", "3985": " penguin", "3986": " mint", "3987": " jellyfish", "3988": " hoping", "3989": " flour", "3990": " envelope", "3991": " enthus", "3992": " dishes", "3993": " charming", "3994": " cabin", "3995": " blin", "3996": " bet", "3997": " Miss", "3998": "rec", "3999": " writing", "4000": " waffle", "4001": " unpack", "4002": " trash", "4003": " thread", "4004": " staff", "4005": " rolling", "4006": " pant", "4007": " liz", "4008": " inse", "4009": "erable", "4010": " wing", "4011": " stretch", "4012": " sheet", "4013": " shadow", "4014": " roared", "4015": " organize", "4016": " muff", "4017": " grapes", "4018": " ceiling", "4019": " attic", "4020": " airport", "4021": " Buddy", "4022": " iron", "4023": " salt", "4024": " piano", "4025": " obs", "4026": " miserable", "4027": " Would", "4028": " Inst", "4029": " Are", "4030": "reci", "4031": " zoomed", "4032": " strugg", "4033": " sticky", "4034": " screen", "4035": " refused", "4036": " obser", "4037": " needle", "4038": " medal", "4039": " magnet", "4040": " imagined", "4041": " headed", "4042": " freez", "4043": " dess", "4044": " cord", "4045": " bears", "4046": " Dan", "4047": " Andy", "4048": "glass", "4049": " sailor", "4050": " minute", "4051": " lives", "4052": " fisherman", "4053": " appreci", "4054": " Pat", "4055": " Al", "4056": " er", "4057": "vision", "4058": "reeze", "4059": "glasses", "4060": "aled", "4061": " sunglasses", "4062": " strawberry", "4063": " slept", "4064": " rules", "4065": " rat", "4066": " post", "4067": " lizard", "4068": " frogs", "4069": " deaf", "4070": " cheek", "4071": " chance", "4072": " brus", "4073": " airpl", "4074": " God", "4075": "Grandma", "4076": " sandbox", "4077": " rod", "4078": " restless", "4079": " porch", "4080": " pilot", "4081": " order", "4082": " message", "4083": " meas", "4084": " luck", "4085": " inf", "4086": " golden", "4087": " complet", "4088": " beep", "4089": " attract", "4090": " Joey", "4091": " Bunny", "4092": "undry", "4093": "ses", "4094": "ler", "4095": "inde", "4096": "aused", "4097": "apers", "4098": "Little", "4099": " wire", "4100": " vend", "4101": " stranger", "4102": " stickers", "4103": " spring", "4104": " somewhere", "4105": " silver", "4106": " shade", "4107": " perfectly", "4108": " panda", "4109": " laundry", "4110": " impro", "4111": " battery", "4112": " admire", "4113": " Su", "4114": " Mimi", "4115": " Charlie", "4116": " wishes", "4117": " trave", "4118": " trop", "4119": " television", "4120": " reinde", "4121": " putting", "4122": " gloomy", "4123": " cats", "4124": " cards", "4125": " buzz", "4126": " bikes", "4127": "\u00c5\u0093You", "4128": "urb", "4129": "une", "4130": "mand", "4131": "house", "4132": "gn", "4133": " trophy", "4134": " towers", "4135": " sweetheart", "4136": " steak", "4137": " skeleton", "4138": " pretending", "4139": " pressed", "4140": " listening", "4141": " incl", "4142": " energy", "4143": " ended", "4144": "opus", "4145": "men", "4146": "edy", "4147": "ecause", "4148": "axi", "4149": "Jenny", "4150": " tricks", "4151": " reco", "4152": " planet", "4153": " petals", "4154": " letters", "4155": " insect", "4156": " hall", "4157": " evening", "4158": " dessert", "4159": " cob", "4160": " chirp", "4161": " apologized", "4162": " Maria", "4163": " Look", "4164": " Instead", "4165": "ison", "4166": "htray", "4167": "ctory", "4168": " weigh", "4169": " vendor", "4170": " stud", "4171": " softly", "4172": " pole", "4173": " magaz", "4174": " kitty", "4175": " hut", "4176": " explain", "4177": " cobw", "4178": " ashtray", "4179": " Here", "4180": "night", "4181": "come", "4182": " wife", "4183": " uncle", "4184": " sunf", "4185": " sort", "4186": " shelter", "4187": " polish", "4188": " peek", "4189": " pit", "4190": " pages", "4191": " pad", "4192": " newsp", "4193": " meat", "4194": " leaned", "4195": " holes", "4196": " half", "4197": " forgotten", "4198": " disturb", "4199": " dive", "4200": " ax", "4201": "zzy", "4202": "ilet", "4203": "eve", "4204": "cast", "4205": " sunset", "4206": " sandcast", "4207": " rub", "4208": " quar", "4209": " peach", "4210": " miner", "4211": " married", "4212": " hunter", "4213": " eaten", "4214": " axe", "4215": " aer", "4216": "unately", "4217": "opl", "4218": "ipping", "4219": "hero", "4220": "happy", "4221": " worth", "4222": " toilet", "4223": " superhero", "4224": " recogn", "4225": " rug", "4226": " pirates", "4227": " hadn", "4228": " distant", "4229": " dust", "4230": " cups", "4231": " blueber", "4232": " baking", "4233": " aeropl", "4234": "\u00e2\u0082\u00ac\u00e2\u0080\u009c", "4235": "\u00c5\u0093That", "4236": "urch", "4237": "uby", "4238": "sely", "4239": "ills", "4240": "ected", "4241": " zip", "4242": " unhappy", "4243": " taxi", "4244": " strip", "4245": " radish", "4246": " pasta", "4247": " lid", "4248": " insist", "4249": " grabs", "4250": " freezer", "4251": " factory", "4252": " closely", "4253": " attractive", "4254": " airplane", "4255": " Will", "4256": " Papa", "4257": "aws", "4258": "alley", "4259": " video", "4260": " trail", "4261": " tut", "4262": " sprayed", "4263": " snap", "4264": " shouts", "4265": " pine", "4266": " marbles", "4267": " lend", "4268": " itch", "4269": " infant", "4270": " finds", "4271": " fields", "4272": " fu", "4273": " celebrated", "4274": " Wh", "4275": " Ted", "4276": "ween", "4277": "astic", "4278": "Emma", "4279": " yach", "4280": " weather", "4281": " valley", "4282": " tub", "4283": " surround", "4284": " short", "4285": " popped", "4286": " lightning", "4287": " grape", "4288": " discu", "4289": " climbing", "4290": " cell", "4291": " bur", "4292": " Bun", "4293": "stic", "4294": "seum", "4295": "right", "4296": "mm", "4297": "iform", "4298": "fee", "4299": "ffee", "4300": "ctopus", "4301": "Thanks", "4302": " yacht", "4303": " uniform", "4304": " stom", "4305": " scolded", "4306": " photo", "4307": " octopus", "4308": " museum", "4309": " modest", "4310": " mama", "4311": " hipp", "4312": " drawings", "4313": " country", "4314": " blinked", "4315": " Sm", "4316": " Fred", "4317": "igloo", "4318": "iastic", "4319": "ari", "4320": "Qu", "4321": " visited", "4322": " tap", "4323": " rever", "4324": " prevent", "4325": " pow", "4326": " oak", "4327": " kneel", "4328": " invest", "4329": " enthusiastic", "4330": " delay", "4331": " cooler", "4332": " belt", "4333": " breeze", "4334": " attention", "4335": " appl", "4336": " igloo", "4337": "stairs", "4338": "robe", "4339": "osie", "4340": "ories", "4341": "icer", "4342": "ggy", "4343": "Today", "4344": "Eventually", "4345": " wigg", "4346": " throwing", "4347": " reindeer", "4348": " puddles", "4349": " paws", "4350": " pair", "4351": " kingdom", "4352": " entered", "4353": " coffee", "4354": "una", "4355": "ival", "4356": "erc", "4357": "amber", "4358": " yield", "4359": " toes", "4360": " steam", "4361": " split", "4362": " second", "4363": " quarrel", "4364": " napkin", "4365": " lions", "4366": " investig", "4367": " hippo", "4368": " frame", "4369": " flame", "4370": " dear", "4371": " conf", "4372": " checked", "4373": " Harry", "4374": "stri", "4375": "chie", "4376": "agg", "4377": " zipper", "4378": " vest", "4379": " ur", "4380": " spir", "4381": " radio", "4382": " raz", "4383": " rise", "4384": " pushes", "4385": " desk", "4386": " costume", "4387": " chain", "4388": " anch", "4389": "aurant", "4390": " unlock", "4391": " sprink", "4392": " papers", "4393": " math", "4394": " journal", "4395": " greedy", "4396": " exerc", "4397": " either", "4398": " club", "4399": " claws", "4400": " chamber", "4401": " baseball", "4402": " ants", "4403": " Where", "4404": "sing", "4405": "omas", "4406": " winter", "4407": " vi", "4408": " tutor", "4409": " tucked", "4410": " squash", "4411": " suff", "4412": " restaurant", "4413": " dancer", "4414": " crow", "4415": " complain", "4416": " bouncing", "4417": " argue", "4418": " anchor", "4419": "ups", "4420": "place", "4421": "hic", "4422": "any", "4423": " vehic", "4424": " stuffed", "4425": " starting", "4426": " pants", "4427": " pal", "4428": " ostri", "4429": " mug", "4430": " lie", "4431": " investigate", "4432": " cricket", "4433": " between", "4434": " avoc", "4435": "olin", "4436": "Ha", "4437": " waving", "4438": " spirit", "4439": " signs", "4440": " shoulder", "4441": " since", "4442": " ranch", "4443": " pulls", "4444": " maze", "4445": " leash", "4446": " imagination", "4447": " hedge", "4448": " flapped", "4449": " fest", "4450": " experience", "4451": " egg", "4452": " church", "4453": " Smith", "4454": " Jess", "4455": " I\u00c3\u00a2", "4456": "urnit", "4457": "urniture", "4458": "uckily", "4459": "omes", "4460": "osed", "4461": "ippery", "4462": "ides", "4463": "ero", "4464": "Your", "4465": " slippery", "4466": " seeing", "4467": " saus", "4468": " reve", "4469": " razor", "4470": " poke", "4471": " palace", "4472": " newspaper", "4473": " jeep", "4474": " grin", "4475": " frowned", "4476": " flood", "4477": " furniture", "4478": " cows", "4479": " bury", "4480": " bother", "4481": "reek", "4482": "medi", "4483": "ionary", "4484": "ictionary", "4485": "ents", "4486": "aggie", "4487": " welcomed", "4488": " twink", "4489": " tripped", "4490": " thanks", "4491": " sunflower", "4492": " potatoes", "4493": " pinch", "4494": " kisses", "4495": " ink", "4496": " imagine", "4497": " classroom", "4498": " creek", "4499": " cared", "4500": " berry", "4501": " belongs", "4502": " beef", "4503": " bin", "4504": " Polly", "4505": " Millie", "4506": " May", "4507": "ron", "4508": "mediately", "4509": " trains", "4510": " mustache", "4511": " model", "4512": " demand", "4513": " dictionary", "4514": " crash", "4515": " art", "4516": " alive", "4517": " Ju", "4518": " Chr", "4519": "ssible", "4520": "nie", "4521": "iskers", "4522": "ckey", "4523": "antly", "4524": " straight", "4525": " splashing", "4526": " spear", "4527": " sneak", "4528": " sailing", "4529": " regret", "4530": " refre", "4531": " point", "4532": " memories", "4533": " magazine", "4534": " hockey", "4535": " hanging", "4536": " golf", "4537": " counter", "4538": " candles", "4539": " barks", "4540": " Un", "4541": "sit", "4542": "rod", "4543": "phone", "4544": "inking", "4545": "ib", "4546": "fortunately", "4547": "chair", "4548": "Inside", "4549": " veter", "4550": " understanding", "4551": " trade", "4552": " telephone", "4553": " tear", "4554": " squirrels", "4555": " sock", "4556": " smells", "4557": " requ", "4558": " rot", "4559": " rake", "4560": " mistakes", "4561": " mailbox", "4562": " lip", "4563": " laser", "4564": " introd", "4565": " fought", "4566": " emer", "4567": " caring", "4568": " breaks", "4569": "tain", "4570": "ites", "4571": "inarian", "4572": "bbles", "4573": "ait", "4574": " yucky", "4575": " veterinarian", "4576": " vet", "4577": " swung", "4578": " supposed", "4579": " separate", "4580": " saving", "4581": " quietly", "4582": " offer", "4583": " note", "4584": " nation", "4585": " kay", "4586": " glowing", "4587": " flies", "4588": " fireplace", "4589": " easily", "4590": " eagerly", "4591": " cobweb", "4592": " armchair", "4593": " Henry", "4594": " Cat", "4595": "asp", "4596": "achel", "4597": "act", "4598": "Next", "4599": "Mr", "4600": " shrimp", "4601": " puzzles", "4602": " pearl", "4603": " novel", "4604": " men", "4605": " judge", "4606": " jazz", "4607": " hotel", "4608": " hardly", "4609": " drops", "4610": " blankets", "4611": " Tr", "4612": " Lee", "4613": "aud", "4614": "arnt", "4615": "affe", "4616": " weep", "4617": " soil", "4618": " points", "4619": " poked", "4620": " player", "4621": " ostrich", "4622": " learnt", "4623": " it\u00c3\u00a2", "4624": " invite", "4625": " feelings", "4626": " collected", "4627": " chewed", "4628": " cane", "4629": " balan", "4630": "nger", "4631": "Mmm", "4632": "Bye", "4633": " warmth", "4634": " wiz", "4635": " shrink", "4636": " sigh", "4637": " rabbits", "4638": " patiently", "4639": " item", "4640": " giraffe", "4641": " flav", "4642": " festival", "4643": " dressed", "4644": " decorations", "4645": " created", "4646": " coats", "4647": " believed", "4648": " bri", "4649": " applaud", "4650": " aeroplane", "4651": " Fo", "4652": "Because", "4653": " wizard", "4654": " streng", "4655": " shakes", "4656": " respons", "4657": " remove", "4658": " parts", "4659": " olives", "4660": " moves", "4661": " mop", "4662": " jogged", "4663": " jewelry", "4664": " jug", "4665": " instr", "4666": " immediately", "4667": " grill", "4668": " floated", "4669": " discovery", "4670": " curled", "4671": " acorns", "4672": " Ro", "4673": " Next", "4674": "\u00c5\u0093No", "4675": "ucet", "4676": "ney", "4677": "ety", "4678": "elery", "4679": "cakes", "4680": "Jake", "4681": " trusted", "4682": " tornado", "4683": " theater", "4684": " sque", "4685": " shrugged", "4686": " pear", "4687": " moments", "4688": " mall", "4689": " ideas", "4690": " homes", "4691": " growled", "4692": " gro", "4693": " ga", "4694": " faucet", "4695": " choice", "4696": " cardboard", "4697": " bookshe", "4698": " Grace", "4699": "low", "4700": "ccer", "4701": "Together", "4702": "Ok", "4703": " wags", "4704": " suffer", "4705": " strength", "4706": " solved", "4707": " ribbon", "4708": " row", "4709": " quit", "4710": " makeup", "4711": " knot", "4712": " hive", "4713": " fallen", "4714": " deeper", "4715": " chirping", "4716": " captain", "4717": " celery", "4718": " beans", "4719": " Jerry", "4720": " Clara", "4721": "sters", "4722": "ising", "4723": "icing", "4724": "hter", "4725": "ges", "4726": " wandered", "4727": " vanished", "4728": " stable", "4729": " soccer", "4730": " ringing", "4731": " replace", "4732": " pra", "4733": " mitten", "4734": " lotion", "4735": " letting", "4736": " laughter", "4737": " folded", "4738": " fog", "4739": " flutter", "4740": " eraser", "4741": " buried", "4742": " bravely", "4743": " bookshelf", "4744": " ble", "4745": " apart", "4746": " Ra", "4747": " People", "4748": "\n ", "4749": "nies", "4750": "izes", "4751": "case", "4752": "avid", "4753": "allen", "4754": "ab", "4755": "Will", "4756": "Sammy", "4757": "Mandy", "4758": " wisdom", "4759": " succeeded", "4760": " struggling", "4761": " sneezed", "4762": " sip", "4763": " rhy", "4764": " pillows", "4765": " pur", "4766": " oper", "4767": " onion", "4768": " ignored", "4769": " chickens", "4770": " challen", "4771": " cable", "4772": " burned", "4773": " brain", "4774": " accepted", "4775": " Rosie", "4776": " Is", "4777": "sity", "4778": "raged", "4779": "ishing", "4780": "Lisa", "4781": " vehicle", "4782": " sparkle", "4783": " seas", "4784": " sandcastle", "4785": " prop", "4786": " page", "4787": " neighborhood", "4788": " matches", "4789": " lumber", "4790": " jogging", "4791": " hurting", "4792": " guy", "4793": " following", "4794": " fishing", "4795": " differen", "4796": " castles", "4797": " admir", "4798": " Steve", "4799": "vet", "4800": "ement", "4801": "Wait", "4802": "..", "4803": " tuna", "4804": " tease", "4805": " skirt", "4806": " serve", "4807": " score", "4808": " quack", "4809": " presents", "4810": " plates", "4811": " paused", "4812": " hearts", "4813": " drain", "4814": " crossed", "4815": " crawling", "4816": " chairs", "4817": " amazement", "4818": " Ollie", "4819": " Lilly", "4820": "aped", "4821": " wipe", "4822": " violin", "4823": " sub", "4824": " sport", "4825": " sneeze", "4826": " slice", "4827": " settled", "4828": " repeat", "4829": " rail", "4830": " provide", "4831": " port", "4832": " lime", "4833": " fash", "4834": " collection", "4835": " cliff", "4836": " bookcase", "4837": " below", "4838": " Suzy", "4839": "utty", "4840": "seek", "4841": "riger", "4842": "rigerator", "4843": "ction", "4844": "Mark", "4845": " worms", "4846": " swamp", "4847": " supply", "4848": " squeezed", "4849": " shopkeeper", "4850": " setting", "4851": " scooped", "4852": " safety", "4853": " refrigerator", "4854": " raise", "4855": " plastic", "4856": " muffin", "4857": " kayak", "4858": " incre", "4859": " ignore", "4860": " hits", "4861": " fashion", "4862": " appro", "4863": " Whiskers", "4864": " Spike", "4865": " Ruby", "4866": " Later", "4867": " Kate", "4868": "\u00c5\u0093It\u00c3\u00a2", "4869": "uture", "4870": "thm", "4871": "elcome", "4872": "asc", "4873": "Did", "4874": " university", "4875": " strawberries", "4876": " sniffed", "4877": " skills", "4878": " scattered", "4879": " prepare", "4880": " palm", "4881": " opera", "4882": " oil", "4883": " known", "4884": " keeping", "4885": " insisted", "4886": " includ", "4887": " image", "4888": " herbs", "4889": " helper", "4890": " happens", "4891": " grocer", "4892": " flap", "4893": " future", "4894": " discuss", "4895": " disagreed", "4896": " during", "4897": " cuddled", "4898": " crib", "4899": " complete", "4900": " begged", "4901": " avocado", "4902": " alright", "4903": " achie", "4904": " Kat", "4905": " Ab", "4906": "\u00e2\u0082\u00ac.", "4907": "xture", "4908": "nam", "4909": "ission", "4910": "eside", "4911": "ense", "4912": "anges", "4913": "'.", "4914": " zig", "4915": " yoga", "4916": " whip", "4917": " weren", "4918": " warning", "4919": " vac", "4920": " safari", "4921": " rush", "4922": " rooms", "4923": " root", "4924": " rhythm", "4925": " relaxed", "4926": " plays", "4927": " permission", "4928": " peaches", "4929": " operation", "4930": " mineral", "4931": " heads", "4932": " hesit", "4933": " harb", "4934": " follows", "4935": " emergen", "4936": " doors", "4937": " buzzing", "4938": " bumped", "4939": " breathe", "4940": " Zoe", "4941": " Remy", "4942": " Paul", "4943": "shing", "4944": "omm", "4945": "ommend", "4946": "laire", "4947": "ishes", "4948": "inky", "4949": "Peter", "4950": "Bella", "4951": "'ve", "4952": " teaching", "4953": " stro", "4954": " squeeze", "4955": " spade", "4956": " soared", "4957": " recommend", "4958": " punish", "4959": " mention", "4960": " herb", "4961": " hated", "4962": " fle", "4963": " destroyed", "4964": " digg", "4965": " daisy", "4966": " bathe", "4967": " bun", "4968": " aut", "4969": " Freddy", "4970": "osity", "4971": "member", "4972": "lid", "4973": "ived", "4974": "ffic", "4975": "agull", "4976": "ah", "4977": " spending", "4978": " seagull", "4979": " reverse", "4980": " praised", "4981": " ornam", "4982": " mystery", "4983": " melted", "4984": " meowed", "4985": " mass", "4986": " jokes", "4987": " folder", "4988": " enter", "4989": " event", "4990": " digging", "4991": " continue", "4992": " boot", "4993": " beside", "4994": " appreciate", "4995": " Before", "4996": "walk", "4997": "liday", "4998": " wherever", "4999": " vacation", "5000": " surrounded", "5001": " subway", "5002": " sidewalk", "5003": " sizes", "5004": " leak", "5005": " improve", "5006": " holiday", "5007": " glove", "5008": " dire", "5009": " calls", "5010": " Rabbit", "5011": " Not", "5012": " Its", "5013": " Buzz", "5014": "render", "5015": "ls", "5016": "lier", "5017": "imney", "5018": "bbled", "5019": "arm", "5020": "Ann", "5021": " weeks", "5022": " unite", "5023": " taller", "5024": " sparkles", "5025": " socks", "5026": " slip", "5027": " poem", "5028": " pastry", "5029": " panic", "5030": " licks", "5031": " jewels", "5032": " hist", "5033": " famil", "5034": " fed", "5035": " doctors", "5036": " collecting", "5037": " cherries", "5038": " chimney", "5039": " bringing", "5040": " beneath", "5041": " Jones", "5042": " Help", "5043": "ym", "5044": "oral", "5045": "coli", "5046": "ccoli", "5047": "ascin", "5048": "angu", "5049": "amie", "5050": "Tweet", "5051": "Is", "5052": "!\",", "5053": " scratched", "5054": " ruler", "5055": " rust", "5056": " pulling", "5057": " planned", "5058": " jail", "5059": " isn", "5060": " history", "5061": " gym", "5062": " examine", "5063": " elephants", "5064": " disappear", "5065": " difference", "5066": " blood", "5067": " bill", "5068": " apron", "5069": " alarm", "5070": " Rachel", "5071": "tress", "5072": "reat", "5073": "ictory", "5074": "fied", "5075": "cage", "5076": "aspoon", "5077": "Kitty", "5078": "Jen", "5079": " yawned", "5080": " whistling", "5081": " traffic", "5082": " sticker", "5083": " settle", "5084": " sir", "5085": " simp", "5086": " restore", "5087": " rested", "5088": " painter", "5089": " mattress", "5090": " langu", "5091": " hate", "5092": " fixing", "5093": " fascin", "5094": " doggy", "5095": " broccoli", "5096": " bites", "5097": " birdcage", "5098": " attach", "5099": " Luna", "5100": " Lou", "5101": "te", "5102": "ring", "5103": "hins", "5104": "fy", "5105": "ena", "5106": "With", "5107": " watered", "5108": " twisted", "5109": " tremb", "5110": " teaspoon", "5111": " surrender", "5112": " stomach", "5113": " sew", "5114": " scratch", "5115": " planes", "5116": " myself", "5117": " harbor", "5118": " happiest", "5119": " gifts", "5120": " fireworks", "5121": " film", "5122": " emergency", "5123": " eagle", "5124": " destination", "5125": " blueberries", "5126": " actually", "5127": " accom", "5128": " True", "5129": " Or", "5130": " Nutty", "5131": " Liz", "5132": "zag", "5133": "uggage", "5134": "ira", "5135": "Emily", "5136": " veil", "5137": " tracks", "5138": " throws", "5139": " poison", "5140": " mission", "5141": " lily", "5142": " hills", "5143": " heat", "5144": " grey", "5145": " float", "5146": " earlier", "5147": " drinks", "5148": " comfy", "5149": " bunnies", "5150": " awe", "5151": " Thomas", "5152": " Snow", "5153": " Sunny", "5154": " Qu", "5155": "ops", "5156": "ium", "5157": "Not", "5158": " waste", "5159": " tong", "5160": " toe", "5161": " tug", "5162": " tide", "5163": " shower", "5164": " secrets", "5165": " release", "5166": " gotten", "5167": " girls", "5168": " bleed", "5169": " accompl", "5170": " Sharing", "5171": " Jazz", "5172": " Each", "5173": "mare", "5174": "icorn", "5175": "hest", "5176": "att", "5177": "All", "5178": " whisper", "5179": " unicorn", "5180": " stretching", "5181": " scur", "5182": " reminder", "5183": " possible", "5184": " petted", "5185": " nightmare", "5186": " loaded", "5187": " hurric", "5188": " flea", "5189": " fastest", "5190": " everyday", "5191": " encouraged", "5192": " dresses", "5193": " dolphins", "5194": " dare", "5195": " challenge", "5196": " brings", "5197": " billboard", "5198": " autom", "5199": " approached", "5200": " Sandy", "5201": " Fro", "5202": " Bubbles", "5203": "was", "5204": "washer", "5205": "quake", "5206": "ddy", "5207": "anna", "5208": "amb", "5209": "adium", "5210": "Fl", "5211": " worse", "5212": " vel", "5213": " universe", "5214": " tour", "5215": " tore", "5216": " sparkling", "5217": " skipping", "5218": " poppy", "5219": " observe", "5220": " measured", "5221": " meow", "5222": " lick", "5223": " gust", "5224": " explorer", "5225": " exact", "5226": " easier", "5227": " earthquake", "5228": " dishwasher", "5229": " brick", "5230": " bend", "5231": " automob", "5232": " Penny", "5233": " Annie", "5234": "\u00c5\u0093We", "5235": "terday", "5236": "omeday", "5237": "etch", "5238": "\",", "5239": " zigzag", "5240": " ward", "5241": " waffles", "5242": " thumb", "5243": " stadium", "5244": " sausage", "5245": " refreshed", "5246": " received", "5247": " receive", "5248": " reaches", "5249": " powder", "5250": " peered", "5251": " ours", "5252": " lands", "5253": " fuel", "5254": " appear", "5255": " Everyday", "5256": "izing", "5257": "igail", "5258": "ickey", "5259": "Welcome", "5260": "Sh", "5261": " wardrobe", "5262": " villag", "5263": " tongue", "5264": " teasing", "5265": " strike", "5266": " strang", "5267": " spoons", "5268": " someday", "5269": " prayed", "5270": " mountains", "5271": " manage", "5272": " mailman", "5273": " lawn", "5274": " laid", "5275": " invit", "5276": " human", "5277": " hers", "5278": " grinned", "5279": " exercise", "5280": " dried", "5281": " cub", "5282": " crept", "5283": " chirped", "5284": " Tina", "5285": " Josh", "5286": " David", "5287": "xygen", "5288": "mother", "5289": " workers", "5290": " wonders", "5291": " velvet", "5292": " resting", "5293": " responsible", "5294": " poking", "5295": " photos", "5296": " pedal", "5297": " lemonade", "5298": " ladyb", "5299": " hurried", "5300": " escaped", "5301": " diary", "5302": " crunch", "5303": " cherry", "5304": " James", "5305": " However", "5306": " Co", "5307": "py", "5308": "allow", "5309": "Sometimes", "5310": "First", "5311": " victory", "5312": " thrilled", "5313": " strangers", "5314": " spots", "5315": " spit", "5316": " sliding", "5317": " satis", "5318": " request", "5319": " rele", "5320": " pride", "5321": " planted", "5322": " owned", "5323": " ornament", "5324": " marks", "5325": " glowed", "5326": " glo", "5327": " file", "5328": " duckling", "5329": " discovering", "5330": " contain", "5331": " circus", "5332": " buckle", "5333": " admiring", "5334": " Who", "5335": "\u00c5\u0093I\u00c3\u00a2", "5336": "orses", "5337": "nes", "5338": "nesday", "5339": "irpy", "5340": "ednesday", "5341": "Luckily", "5342": "Before", "5343": " weight", "5344": " weap", "5345": " voices", "5346": " turning", "5347": " shopping", "5348": " shot", "5349": " recognized", "5350": " patterns", "5351": " opin", "5352": " missile", "5353": " massage", "5354": " junk", "5355": " hopes", "5356": " floating", "5357": " cabinet", "5358": " Have", "5359": " V", "5360": "ores", "5361": "oming", "5362": "iles", "5363": "iers", "5364": "!'", "5365": " works", "5366": " weighed", "5367": " washing", "5368": " stole", "5369": " soldiers", "5370": " quiz", "5371": " peanuts", "5372": " oranges", "5373": " oxygen", "5374": " oats", "5375": " marching", "5376": " luggage", "5377": " horses", "5378": " gear", "5379": " gain", "5380": " contro", "5381": " clearing", "5382": " Jenna", "5383": "rr", "5384": "len", "5385": "joyed", "5386": "ien", "5387": "ases", "5388": "aces", "5389": "George", "5390": " urge", "5391": " snapped", "5392": " problems", "5393": " overjoyed", "5394": " lips", "5395": " lets", "5396": " lawy", "5397": " language", "5398": " gloves", "5399": " exactly", "5400": " company", "5401": " climbs", "5402": " chores", "5403": " catching", "5404": " Wednesday", "5405": " See", "5406": " Sad", "5407": " Nina", "5408": "uing", "5409": "ude", "5410": "rise", "5411": "oved", "5412": "ging", "5413": "ecture", "5414": "atch", "5415": "Un", "5416": "Susie", "5417": "Lola", "5418": "Ella", "5419": " wanting", "5420": " tastes", "5421": " sunrise", "5422": " soaring", "5423": " shelves", "5424": " si", "5425": " radishes", "5426": " racing", "5427": " prec", "5428": " perfu", "5429": " pancakes", "5430": " padd", "5431": " none", "5432": " lecture", "5433": " dent", "5434": " cones", "5435": " cakes", "5436": " beamed", "5437": " bang", "5438": " anytime", "5439": " Je", "5440": " Good", "5441": "\u00c5\u0093Thank", "5442": "xu", "5443": "va", "5444": "uesday", "5445": "ucture", "5446": "uxu", "5447": "pe", "5448": "mble", "5449": "Dave", "5450": "Al", "5451": " zooming", "5452": " zipped", "5453": " whatever", "5454": " vroom", "5455": " upstairs", "5456": " structure", "5457": " sprinkles", "5458": " soak", "5459": " sits", "5460": " sights", "5461": " served", "5462": " prepared", "5463": " paints", "5464": " onwards", "5465": " olive", "5466": " lawyer", "5467": " ladybug", "5468": " luxu", "5469": " invitation", "5470": " hurricane", "5471": " flat", "5472": " drift", "5473": " caut", "5474": " bowed", "5475": " Someone", "5476": " Ol", "5477": "\u00c5\u0093Don", "5478": "\u00c5\u0093Can", "5479": "do", "5480": "Yuck", "5481": "Andy", "5482": " villagers", "5483": " underground", "5484": " surprises", "5485": " steel", "5486": " sorting", "5487": " screams", "5488": " rag", "5489": " prett", "5490": " precious", "5491": " perfume", "5492": " muddy", "5493": " label", "5494": " highest", "5495": " firemen", "5496": " fascinated", "5497": " crashed", "5498": " comforted", "5499": " cal", "5500": " area", "5501": " Tuesday", "5502": " Maggie", "5503": " Jamie", "5504": " Doggy", "5505": "vers", "5506": "rin", "5507": "omething", "5508": "ik", "5509": "ampoo", "5510": "Mike", "5511": " stealing", "5512": " slim", "5513": " simple", "5514": " revealed", "5515": " released", "5516": " pupil", "5517": " pies", "5518": " oat", "5519": " movies", "5520": " kneeled", "5521": " glitter", "5522": " freeze", "5523": " eff", "5524": " decorated", "5525": " cape", "5526": " bean", "5527": " bare", "5528": " Rob", "5529": "jam", "5530": "ex", "5531": "bbie", "5532": "aded", "5533": "These", "5534": " zero", "5535": " wondering", "5536": " wagging", "5537": " twigs", "5538": " tune", "5539": " studying", "5540": " stamps", "5541": " staring", "5542": " solut", "5543": " soaked", "5544": " slimy", "5545": " shampoo", "5546": " scoop", "5547": " remained", "5548": " properly", "5549": " mentioned", "5550": " kindly", "5551": " items", "5552": " grandmother", "5553": " effort", "5554": " bye", "5555": " beat", "5556": " Claire", "5557": " x", "5558": "uggles", "5559": "uctantly", "5560": "Yum", "5561": "Ouch", "5562": " wooden", "5563": " winning", "5564": " weapon", "5565": " tremble", "5566": " traveled", "5567": " talent", "5568": " tim", "5569": " stolen", "5570": " sty", "5571": " siren", "5572": " seats", "5573": " safer", "5574": " sadness", "5575": " sings", "5576": " rides", "5577": " relief", "5578": " regretted", "5579": " rained", "5580": " polishing", "5581": " ordered", "5582": " obe", "5583": " nicer", "5584": " mouths", "5585": " memory", "5586": " markers", "5587": " mister", "5588": " luxury", "5589": " inch", "5590": " exit", "5591": " equ", "5592": " demanded", "5593": " died", "5594": " dam", "5595": " curiosity", "5596": " cuddle", "5597": " cheering", "5598": " blackboard", "5599": " beg", "5600": " allow", "5601": " Jessie", "5602": " Chirpy", "5603": " 1", "5604": "unday", "5605": "neath", "5606": "fit", "5607": "eed", "5608": "ales", "5609": "Dan", "5610": " unlocked", "5611": " travell", "5612": " tonight", "5613": " studied", "5614": " shoulders", "5615": " selling", "5616": " repeated", "5617": " remain", "5618": " practicing", "5619": " opinion", "5620": " obey", "5621": " nails", "5622": " measuring", "5623": " hanger", "5624": " firef", "5625": " fetch", "5626": " decision", "5627": " crunchy", "5628": " control", "5629": " chess", "5630": " cautious", "5631": " buildings", "5632": " brushes", "5633": " brand", "5634": " acting", "5635": " accidents", "5636": "wo", "5637": "rmomet", "5638": "rmometer", "5639": "jamas", "5640": "bric", "5641": "Le", "5642": " warn", "5643": " underneath", "5644": " thermometer", "5645": " solution", "5646": " rang", "5647": " raised", "5648": " pencils", "5649": " packing", "5650": " outfit", "5651": " knelt", "5652": " frosting", "5653": " flapping", "5654": " fabric", "5655": " darkness", "5656": " confident", "5657": " boo", "5658": " bank", "5659": " Sunday", "5660": " Quack", "5661": " Let\u00c3\u00a2", "5662": " Am", "5663": "umble", "5664": "son", "5665": "irts", "5666": "ivery", "5667": "boat", "5668": "aster", "5669": "ais", "5670": "Ready", "5671": "Johnny", "5672": "Ex", "5673": " woof", "5674": " tip", "5675": " struggled", "5676": " struck", "5677": " scurried", "5678": " res", "5679": " pause", "5680": " neighbourhood", "5681": " loving", "5682": " lines", "5683": " dragged", "5684": " bleeding", "5685": " balanced", "5686": " automobile", "5687": " Snowy", "5688": " Sus", "5689": " Sure", "5690": " Something", "5691": " Mickey", "5692": " Lucky", "5693": " Ha", "5694": "umbs", "5695": "ledge", "5696": "indy", "5697": "Would", "5698": "Fluffy", "5699": " texture", "5700": " ranger", "5701": " punished", "5702": " pastel", "5703": " onions", "5704": " mixing", "5705": " entire", "5706": " dentist", "5707": " budge", "5708": " brushed", "5709": " barely", "5710": " attached", "5711": " ago", "5712": " Jan", "5713": " Anne", "5714": "looking", "5715": "ivity", "5716": "cc", "5717": "Nina", "5718": "Moral", "5719": "Fr", "5720": " yum", "5721": " whistled", "5722": " visiting", "5723": " trapped", "5724": " touching", "5725": " sunlight", "5726": " staying", "5727": " shooting", "5728": " rubbing", "5729": " reluctantly", "5730": " realize", "5731": " prune", "5732": " perched", "5733": " officer", "5734": " menu", "5735": " landsc", "5736": " knowledge", "5737": " introduce", "5738": " instruct", "5739": " guessed", "5740": " gazed", "5741": " gained", "5742": " families", "5743": " encourage", "5744": " eats", "5745": " drinking", "5746": " comple", "5747": " celebration", "5748": " camping", "5749": " breaking", "5750": " bunch", "5751": " Stop", "5752": " Hoppy", "5753": " Christ", "5754": " Carl", "5755": "\u00c5\u0093Oh", "5756": "riage", "5757": "kins", "5758": "ities", "5759": "exp", "5760": "ding", "5761": "Sophie", "5762": "Really", "5763": " vowed", "5764": " twinkling", "5765": " trembling", "5766": " sweeties", "5767": " sighs", "5768": " ripped", "5769": " printer", "5770": " pinched", "5771": " peel", "5772": " ourselves", "5773": " organizing", "5774": " naps", "5775": " navy", "5776": " landscape", "5777": " keeps", "5778": " instructions", "5779": " flavor", "5780": " feast", "5781": " disagree", "5782": " delivery", "5783": " crowd", "5784": " crabs", "5785": " copper", "5786": " claps", "5787": " chases", "5788": " cartoons", "5789": " broom", "5790": " baked", "5791": " apologize", "5792": " agreement", "5793": " Poppy", "5794": " Joy", "5795": " First", "5796": " Chris", "5797": "\u00c5\u0093Don\u00c3\u00a2", "5798": "\u00c5\u0093This", "5799": "sted", "5800": "itely", "5801": "irm", "5802": "expected", "5803": "anes", "5804": "Teddy", "5805": "Ah", "5806": ".'", "5807": " youth", "5808": " worries", "5809": " winner", "5810": " swooped", "5811": " surface", "5812": " sting", "5813": " shivering", "5814": " satisfied", "5815": " ruin", "5816": " roaring", "5817": " purred", "5818": " melting", "5819": " giggling", "5820": " figured", "5821": " expect", "5822": " competition", "5823": " cash", "5824": " boom", "5825": " achieve", "5826": " Uncle", "5827": " Milly", "5828": " Matt", "5829": " Lu", "5830": " June", "5831": " Happy", "5832": " Frank", "5833": " For", "5834": " Beth", "5835": "\u00c5\u0093That\u00c3\u00a2", "5836": "you", "5837": "loe", "5838": "izzie", "5839": "eds", "5840": "boo", "5841": " timer", "5842": " stool", "5843": " spill", "5844": " situ", "5845": " shivered", "5846": " screaming", "5847": " sway", "5848": " recorded", "5849": " pouring", "5850": " permit", "5851": " parked", "5852": " motion", "5853": " lic", "5854": " including", "5855": " heav", "5856": " guys", "5857": " greet", "5858": " grant", "5859": " gle", "5860": " eight", "5861": " downstairs", "5862": " becoming", "5863": " bumpy", "5864": " Snuggles", "5865": " Mira", "5866": "\u00c5\u0093Hello", "5867": "zie", "5868": "usted", "5869": "reck", "5870": "mas", "5871": "icky", "5872": "bies", "5873": "Joey", "5874": "Happy", "5875": " yesterday", "5876": " wiggled", "5877": " vent", "5878": " unexpected", "5879": " twirling", "5880": " sweat", "5881": " supplies", "5882": " style", "5883": " stripes", "5884": " stirring", "5885": " secure", "5886": " rocking", "5887": " pajamas", "5888": " license", "5889": " introduc", "5890": " increase", "5891": " horns", "5892": " growling", "5893": " forgi", "5894": " decides", "5895": " cutting", "5896": " costumes", "5897": " chef", "5898": " brid", "5899": " bouncy", "5900": " blooming", "5901": " babies", "5902": " Squ", "5903": " Momo", "5904": " Lena", "5905": " Both", "5906": " Abigail", "5907": " Y", "5908": "zing", "5909": "ipment", "5910": "iggy", "5911": "igers", "5912": "hello", "5913": "enty", "5914": "anta", "5915": "angled", "5916": "Kat", "5917": "Alex", "5918": " waits", "5919": " west", "5920": " vanish", "5921": " treehouse", "5922": " ty", "5923": " storekeeper", "5924": " stair", "5925": " spraying", "5926": " sore", "5927": " scra", "5928": " sailboat", "5929": " six", "5930": " roots", "5931": " rescued", "5932": " remembers", "5933": " price", "5934": " peeking", "5935": " patience", "5936": " oysters", "5937": " outdo", "5938": " flas", "5939": " firm", "5940": " equipment", "5941": " drums", "5942": " dinosaurs", "5943": " conn", "5944": " buckets", "5945": " bridges", "5946": " ann", "5947": " Julie", "5948": " Christmas", "5949": "\u00e2\u0082\u00ac\u00e2\u0080\u009d", "5950": "pite", "5951": "njoy", "5952": "edding", "5953": "cers", "5954": "ason", "5955": "asis", "5956": "arrow", "5957": "aker", "5958": "acob", "5959": "Sad", "5960": "Remember", "5961": "Pete", "5962": "Charlie", "5963": "Afterwards", "5964": " thorn", "5965": " tugged", "5966": " sparks", "5967": " sneaked", "5968": " situation", "5969": " single", "5970": " shed", "5971": " shock", "5972": " sides", "5973": " ribbons", "5974": " recognize", "5975": " pockets", "5976": " pets", "5977": " outdoors", "5978": " observed", "5979": " oasis", "5980": " network", "5981": " mixer", "5982": " grocery", "5983": " forehead", "5984": " freed", "5985": " disturbed", "5986": " chat", "5987": " cautiously", "5988": " cott", "5989": " buying", "5990": " bloomed", "5991": " blouse", "5992": " beha", "5993": " begin", "5994": " bones", "5995": " arrive", "5996": " argued", "5997": " These", "5998": " Put", "5999": " It\u00c3\u00a2", "6000": " Amel", "6001": "ument", "6002": "ody", "6003": "iding", "6004": "elix", "6005": "ays", "6006": "Sp", "6007": "Harry", "6008": "Cl", "6009": " worker", "6010": " winked", "6011": " wid", "6012": " towels", "6013": " teaches", "6014": " swims", "6015": " stem", "6016": " steep", "6017": " spaces", "6018": " slap", "6019": " shadows", "6020": " reveal", "6021": " princesses", "6022": " pedals", "6023": " paintings", "6024": " pout", "6025": " pitch", "6026": " objects", "6027": " muffins", "6028": " matched", "6029": " machines", "6030": " keys", "6031": " froze", "6032": " exha", "6033": " crackers", "6034": " coloured", "6035": " clowns", "6036": " chip", "6037": " cashier", "6038": " cous", "6039": " burning", "6040": " basement", "6041": " Prin", "6042": "ustom", "6043": "ndar", "6044": "icked", "6045": "iar", "6046": "die", "6047": "artha", "6048": "alendar", "6049": "Mittens", "6050": "Mar", "6051": "Henry", "6052": "Grandpa", "6053": " waist", "6054": " usually", "6055": " shined", "6056": " recording", "6057": " powers", "6058": " polished", "6059": " pleasure", "6060": " pigs", "6061": " pebbles", "6062": " pastels", "6063": " passing", "6064": " month", "6065": " marked", "6066": " librarian", "6067": " exhausted", "6068": " east", "6069": " curtains", "6070": " completely", "6071": " completed", "6072": " can\u00c3\u00a2", "6073": " custom", "6074": " calendar", "6075": " blueberry", "6076": " blows", "6077": " bathrobe", "6078": " accomplish", "6079": " Robby", "6080": " Me", "6081": " Like", "6082": " Hoot", "6083": " Dolly", "6084": " Bo", "6085": " An", "6086": " Abby", "6087": "\u00c5\u0093What\u00c3\u00a2", "6088": "udo", "6089": "udolp", "6090": "udolph", "6091": "thank", "6092": "ongo", "6093": "onnie", "6094": "ley", "6095": "jo", "6096": "indr", "6097": "ility", "6098": "icha", "6099": "ichael", "6100": "hew", "6101": "eep", "6102": "cky", "6103": "cles", "6104": "ateri", "6105": "atul", "6106": "aced", "6107": "May", "6108": " you\u00c3\u00a2", "6109": " web", "6110": " snowball", "6111": " shirts", "6112": " rocked", "6113": " removed", "6114": " rainbows", "6115": " quacked", "6116": " paddled", "6117": " marriage", "6118": " mice", "6119": " materi", "6120": " leather", "6121": " lap", "6122": " keeper", "6123": " importance", "6124": " hugging", "6125": " however", "6126": " horiz", "6127": " glee", "6128": " gaze", "6129": " direction", "6130": " creation", "6131": " chewing", "6132": " cheeks", "6133": " bully", "6134": " blink", "6135": " bars", "6136": " arguing", "6137": " applauded", "6138": " Susan", "6139": " Mikey", "6140": " Hop", "6141": " Gr", "6142": "\u00c5\u0093Look", "6143": "vin", "6144": "oed", "6145": "od", "6146": "ition", "6147": "ishy", "6148": "iled", "6149": "iders", "6150": "dam", "6151": "annah", "6152": "aky", "6153": "Time", "6154": "Or", "6155": "Mrs", "6156": " wedding", "6157": " tomatoes", "6158": " tickets", "6159": " strings", "6160": " startled", "6161": " squealed", "6162": " slapped", "6163": " reaching", "6164": " raindr", "6165": " project", "6166": " piles", "6167": " patted", "6168": " loose", "6169": " lollipops", "6170": " let\u00c3\u00a2", "6171": " lung", "6172": " kites", "6173": " horizon", "6174": " flags", "6175": " filling", "6176": " expected", "6177": " deser", "6178": " beds", "6179": " Unfortunately", "6180": " Rudolph", "6181": " Jeff", "6182": " Jay", "6183": " Felix", "6184": " Enjoy", "6185": "uzzy", "6186": "ubb", "6187": "ris", "6188": "melon", "6189": "isten", "6190": "affes", "6191": "Ye", "6192": "Some", "6193": "Bobby", "6194": "?'", "6195": " younger", "6196": " yelling", "6197": " writes", "6198": " watermelon", "6199": " wreck", "6200": " usual", "6201": " urged", "6202": " tickled", "6203": " sweets", "6204": " stare", "6205": " spiders", "6206": " ripe", "6207": " pretends", "6208": " plenty", "6209": " piggy", "6210": " kicking", "6211": " interested", "6212": " heel", "6213": " groceries", "6214": " giraffes", "6215": " fairies", "6216": " faced", "6217": " dancers", "6218": " cuts", "6219": " closes", "6220": " burrow", "6221": " bedtime", "6222": " answers", "6223": " acted", "6224": " Suzie", "6225": " Santa", "6226": " Mel", "6227": " Lizzie", "6228": " Katie", "6229": " Far", "6230": " Did", "6231": " Once", "6232": "\u00c5\u0093Why", "6233": "yan", "6234": "urry", "6235": "rip", "6236": "rance", "6237": "oh", "6238": "lowly", "6239": "aby", "6240": "Maggie", "6241": " watches", "6242": " ventured", "6243": " unf", "6244": " tickle", "6245": " suggest", "6246": " spaceship", "6247": " somebody", "6248": " singer", "6249": " signed", "6250": " rustling", "6251": " protecting", "6252": " partic", "6253": " owners", "6254": " neighbors", "6255": " leaning", "6256": " leader", "6257": " leap", "6258": " lower", "6259": " inviting", "6260": " insects", "6261": " include", "6262": " glasses", "6263": " fluttering", "6264": " fart", "6265": " everybody", "6266": " drifted", "6267": " direct", "6268": " creating", "6269": " complaining", "6270": " chips", "6271": " cent", "6272": " caused", "6273": " bottles", "6274": " balancing", "6275": " Luke", "6276": " Katy", "6277": " Follow", "6278": " Bird", "6279": " Aunt", "6280": " \n ", "6281": " Yes", "6282": "\u00c5\u0093You\u00c3\u00a2", "6283": "rious", "6284": "ne", "6285": "iggly", "6286": "go", "6287": "gers", "6288": "ayla", "6289": "avi", "6290": "Those", "6291": "Ab", "6292": " yells", "6293": " written", "6294": " wasn\u00c3\u00a2", "6295": " wound", "6296": " tallest", "6297": " ti", "6298": " struggle", "6299": " sorted", "6300": " snail", "6301": " seven", "6302": " scaring", "6303": " replaced", "6304": " rainco", "6305": " pupp", "6306": " protected", "6307": " printed", "6308": " plucked", "6309": " pears", "6310": " monsters", "6311": " masks", "6312": " marker", "6313": " listens", "6314": " introduced", "6315": " goodnight", "6316": " gathering", "6317": " fault", "6318": " den", "6319": " contest", "6320": " confl", "6321": " comm", "6322": " candies", "6323": " beard", "6324": " awake", "6325": " actions", "6326": " ast", "6327": " Two", "6328": " Moo", "6329": " Luckily", "6330": " Lizzy", "6331": " King", "6332": " Car", "6333": " Buzzy", "6334": " Bongo", "6335": " Ali", "6336": "umbling", "6337": "riends", "6338": "ormed", "6339": "eke", "6340": "dies", "6341": "bel", "6342": "atur", "6343": "arter", "6344": "ades", "6345": "acy", "6346": "aired", "6347": "However", "6348": "Bad", "6349": " whispers", "6350": " waiter", "6351": " tiss", "6352": " snuck", "6353": " smarter", "6354": " slam", "6355": " scales", "6356": " robb", "6357": " repaired", "6358": " reason", "6359": " risk", "6360": " prettiest", "6361": " prayer", "6362": " moo", "6363": " insp", "6364": " flight", "6365": " entrance", "6366": " daring", "6367": " dared", "6368": " cracked", "6369": " chuck", "6370": " catches", "6371": " cough", "6372": " awo", "6373": " Spark", "6374": " Sque", "6375": " Remember", "6376": " Nan", "6377": " Marie", "6378": " Mon", "6379": " Gina", "6380": " Danny", "6381": " Abi", "6382": "zen", "6383": "yond", "6384": "oys", "6385": "opes", "6386": "ica", "6387": "hell", "6388": "fly", "6389": "essie", "6390": "esmer", "6391": "aisies", "6392": "abby", "6393": "Unfortunately", "6394": "Ro", "6395": "Goodbye", "6396": "?\",", "6397": "...", "6398": " wasted", "6399": " tricky", "6400": " travelled", "6401": " tissue", "6402": " theirs", "6403": " threat", "6404": " tigers", "6405": " tangled", "6406": " swirl", "6407": " squares", "6408": " spreading", "6409": " splashes", "6410": " recipe", "6411": " raindrops", "6412": " rising", "6413": " particular", "6414": " noon", "6415": " mesmer", "6416": " improved", "6417": " health", "6418": " handful", "6419": " growls", "6420": " folding", "6421": " dragons", "6422": " determination", "6423": " decorating", "6424": " darker", "6425": " dipped", "6426": " daisies", "6427": " crumbs", "6428": " beyond", "6429": " backed", "6430": " accomplishment", "6431": " Wiggly", "6432": " Pip", "6433": " Leave", "6434": " Get", "6435": "\u00c5\u0093Mommy", "6436": "unched", "6437": "ulu", "6438": "ratul", "6439": "ongratul", "6440": "ners", "6441": "mpt", "6442": "eal", "6443": "athy", "6444": "Wh", "6445": "Toby", "6446": "--", "6447": " windy", "6448": " surfing", "6449": " students", "6450": " stroll", "6451": " sticking", "6452": " sparrow", "6453": " snakes", "6454": " seashell", "6455": " sausages", "6456": " salty", "6457": " rout", "6458": " provided", "6459": " opening", "6460": " lined", "6461": " included", "6462": " honk", "6463": " heavier", "6464": " heading", "6465": " gobbled", "6466": " colored", "6467": " burst", "6468": " Princess", "6469": " Out", "6470": " Nothing", "6471": " Judy", "6472": " Jackie", "6473": " Finn", "6474": " Farmer", "6475": "though", "6476": "llen", "6477": "lves", "6478": "lings", "6479": "ept", "6480": "ently", "6481": "ashed", "6482": "arac", "6483": "alloween", "6484": "Yeah", "6485": "Thomas", "6486": "Josh", "6487": "Ellie", "6488": "During", "6489": "An", "6490": " wiggle", "6491": " uses", "6492": " unpacked", "6493": " trips", "6494": " swept", "6495": " suitc", "6496": " sewing", "6497": " sense", "6498": " roses", "6499": " raincoat", "6500": " rainy", "6501": " needles", "6502": " matching", "6503": " mittens", "6504": " kicks", "6505": " goals", "6506": " forgetting", "6507": " flavors", "6508": " fears", "6509": " farther", "6510": " express", "6511": " copy", "6512": " conflict", "6513": " chuckled", "6514": " choices", "6515": " chop", "6516": " celebrating", "6517": " aff", "6518": " Zoom", "6519": " Zip", "6520": " Without", "6521": " Stella", "6522": " Martha", "6523": " Chloe", "6524": " Being", "6525": " Always", "6526": "ults", "6527": "tle", "6528": "ppers", "6529": "per", "6530": "mies", "6531": "ivia", "6532": "immer", "6533": "ddled", "6534": "cuse", "6535": "cl", "6536": "aracter", "6537": "arling", "6538": "Whe", "6539": "Uh", "6540": "Ruby", "6541": "Meow", "6542": "Millie", "6543": "Lilly", "6544": "Fine", "6545": " widened", "6546": " tractor", "6547": " seconds", "6548": " ruining", "6549": " roads", "6550": " rivers", "6551": " rewarded", "6552": " restored", "6553": " polar", "6554": " players", "6555": " passen", "6556": " nur", "6557": " misses", "6558": " learns", "6559": " frozen", "6560": " forgiven", "6561": " fact", "6562": " explorers", "6563": " directions", "6564": " creativity", "6565": " complained", "6566": " character", "6567": " cause", "6568": " breathed", "6569": " bows", "6570": " among", "6571": " achieved", "6572": " Sadly", "6573": " Many", "6574": " Jacob", "6575": " Halloween", "6576": " Eva", "6577": " Bir", "6578": " Binky", "6579": "zes", "6580": "uments", "6581": "ueen", "6582": "uzz", "6583": "uly", "6584": "river", "6585": "no", "6586": "iki", "6587": "hil", "6588": "ern", "6589": "ekend", "6590": "ears", "6591": "choo", "6592": "brush", "6593": "araway", "6594": "allowed", "6595": "Tina", "6596": "Rex", "6597": "Queen", "6598": "Maria", "6599": "Leo", "6600": "Grace", "6601": "Excuse", "6602": " wrist", "6603": " weeping", "6604": " weekend", "6605": " sweetest", "6606": " swallowed", "6607": " sprinkled", "6608": " spoonful", "6609": " speaking", "6610": " spike", "6611": " shaped", "6612": " sandcastles", "6613": " rubs", "6614": " reply", "6615": " ropes", "6616": " rings", "6617": " puff", "6618": " pouted", "6619": " plans", "6620": " peck", "6621": " paddle", "6622": " neatly", "6623": " minerals", "6624": " mane", "6625": " mailed", "6626": " losing", "6627": " hesitated", "6628": " hesitant", "6629": " forks", "6630": " flames", "6631": " faraway", "6632": " experien", "6633": " examined", "6634": " earn", "6635": " drives", "6636": " discussed", "6637": " deal", "6638": " det", "6639": " darling", "6640": " cuddly", "6641": " cubs", "6642": " creations", "6643": " bodies", "6644": " bits", "6645": " belly", "6646": " arr", "6647": " accomplished", "6648": " Zero", "6649": " Thanks", "6650": " Tam", "6651": " Maya", "6652": " Jojo", "6653": " Earth", "6654": "  \n", "6655": "\u00c5\u0093Do", "6656": "quid", "6657": "ivities", "6658": "itted", "6659": "igger", "6660": "ixture", "6661": "eling", "6662": "ads", "6663": "Tweety", "6664": "Nemo", "6665": "Mimi", "6666": "James", "6667": "Have", "6668": "Great", "6669": "Bun", "6670": "Bet", "6671": "Annie", "6672": " wipes", "6673": " uns", "6674": " united", "6675": " toaster", "6676": " tempt", "6677": " supported", "6678": " suffering", "6679": " streets", "6680": " stung", "6681": " stern", "6682": " sports", "6683": " snowballs", "6684": " snugg", "6685": " skill", "6686": " shrinking", "6687": " shops", "6688": " separated", "6689": " rusty", "6690": " resisted", "6691": " result", "6692": " requested", "6693": " purr", "6694": " pumpkins", "6695": " promises", "6696": " prove", "6697": " politely", "6698": " planning", "6699": " peppers", "6700": " meals", "6701": " mixture", "6702": " maker", "6703": " logs", "6704": " liquid", "6705": " limes", "6706": " hopeful", "6707": " hissed", "6708": " gap", "6709": " foods", "6710": " fishes", "6711": " ech", "6712": " delivered", "6713": " damage", "6714": " cupcakes", "6715": " crashing", "6716": " cousin", "6717": " cottage", "6718": " calmed", "6719": " cor", "6720": " congratul", "6721": " behavi", "6722": " batteries", "6723": " awoke", "6724": " annoy", "6725": " amount", "6726": " afterwards", "6727": " activities", "6728": " That\u00c3\u00a2", "6729": " Tilly", "6730": " Squirrel", "6731": " Sadie", "6732": " Ryan", "6733": " Maisy", "6734": " Fox", "6735": " Els", "6736": " Cra", "6737": " Cindy", "6738": " Bye", "6739": " Bonnie", "6740": " Big", "6741": "\u00c5\u0093Wow", "6742": "ubbed", "6743": "otten", "6744": "ossible", "6745": "oor", "6746": "idey", "6747": "ias", "6748": "driver", "6749": "anging", "6750": "Tony", "6751": "Penny", "6752": "Paul", "6753": "Pat", "6754": "Frank", "6755": "Days", "6756": "Bobo", "6757": "Bear", "6758": " wires", "6759": " willing", "6760": " wept", "6761": " wears", "6762": " warnings", "6763": " waddled", "6764": " wow", "6765": " truly", "6766": " touc", "6767": " that\u00c3\u00a2", "6768": " third", "6769": " squishy", "6770": " screwdriver", "6771": " scrubbed", "6772": " sib", "6773": " remote", "6774": " rotten", "6775": " pots", "6776": " peacefully", "6777": " paying", "6778": " opp", "6779": " months", "6780": " merry", "6781": " leads", "6782": " leading", "6783": " knocks", "6784": " impossible", "6785": " homework", "6786": " hides", "6787": " healed", "6788": " haird", "6789": " freedom", "6790": " firefight", "6791": " draws", "6792": " desert", "6793": " crossing", "6794": " convers", "6795": " coloring", "6796": " click", "6797": " chocolates", "6798": " cans", "6799": " bravery", "6800": " backwards", "6801": " bom", "6802": " argument", "6803": " adult", "6804": " Tess", "6805": " Rain", "6806": " Owl", "6807": " Michael", "6808": " Lulu", "6809": " Davey", "6810": " Dr", "6811": " Baa", "6812": " By", "6813": " Amelia", "6814": " Ant", "6815": "yes", "6816": "whe", "6817": "vest", "6818": "unity", "6819": "ophia", "6820": "ntil", "6821": "lue", "6822": "ids", "6823": "found", "6824": "ences", "6825": "eeling", "6826": "cus", "6827": "bbly", "6828": "antastic", "6829": "addie", "6830": "Sadly", "6831": "For", "6832": "Ducky", "6833": "Baby", "6834": " wrapping", "6835": " wandering", "6836": " wink", "6837": " twice", "6838": " tramp", "6839": " teased", "6840": " suitcase", "6841": " statues", "6842": " sobbed", "6843": " snowmen", "6844": " sneezing", "6845": " snat", "6846": " slammed", "6847": " silence", "6848": " siblings", "6849": " shoo", "6850": " season", "6851": " rolls", "6852": " remembering", "6853": " refreshing", "6854": " refle", "6855": " refu", "6856": " reapp", "6857": " praying", "6858": " pecked", "6859": " peas", "6860": " pins", "6861": " mushrooms", "6862": " muscle", "6863": " lied", "6864": " lemons", "6865": " lamb", "6866": " itchy", "6867": " instruments", "6868": " hi", "6869": " guns", "6870": " growl", "6871": " gross", "6872": " flipped", "6873": " fits", "6874": " familiar", "6875": " fantastic", "6876": " dropping", "6877": " dots", "6878": " curly", "6879": " cosy", "6880": " behaved", "6881": " beginning", "6882": " beeh", "6883": " beads", "6884": " backpacks", "6885": " bak", "6886": " attack", "6887": " aside", "6888": " aren", "6889": " appreciation", "6890": " alien", "6891": " afford", "6892": " Sun", "6893": " Sorry", "6894": " Ricky", "6895": " Ray", "6896": " Olivia", "6897": " Janey", "6898": " Foxy", "6899": " Everybody", "6900": " Dot", "6901": " Bow", "6902": " Bee", "6903": " Because", "6904": "\u00c5\u0093Come", "6905": "sty", "6906": "roat", "6907": "resser", "6908": "rect", "6909": "ouch", "6910": "ords", "6911": "ora", "6912": "onny", "6913": "obody", "6914": "lowers", "6915": "esome", "6916": "erk", "6917": "elle", "6918": "ctar", "6919": "aming", "6920": "alph", "6921": "Miss", "6922": "Mira", "6923": "Ew", "6924": " wraps", "6925": " videos", "6926": " tricked", "6927": " tossed", "6928": " tipt", "6929": " thoughts", "6930": " throat", "6931": " stays", "6932": " stacked", "6933": " sped", "6934": " softer", "6935": " smiley", "6936": " scarves", "6937": " responsib", "6938": " report", "6939": " reflection", "6940": " recommended", "6941": " rumble", "6942": " punishment", "6943": " proper", "6944": " notes", "6945": " nervously", "6946": " nectar", "6947": " nine", "6948": " magnets", "6949": " lighter", "6950": " increased", "6951": " hider", "6952": " handsome", "6953": " hairdresser", "6954": " guest", "6955": " focus", "6956": " fluttered", "6957": " encourag", "6958": " dresser", "6959": " dod", "6960": " distract", "6961": " diving", "6962": " deserve", "6963": " delayed", "6964": " def", "6965": " countryside", "6966": " congratulated", "6967": " clerk", "6968": " choo", "6969": " blocked", "6970": " belts", "6971": " beehive", "6972": " bathing", "6973": " bakery", "6974": " badge", "6975": " avoid", "6976": " adding", "6977": " Until", "6978": " Patch", "6979": " Pl", "6980": " Liza", "6981": " Kayla", "6982": " Froggy", "6983": " Fuzzy", "6984": " Becky", "6985": " 10", "6986": "\n\n", "6987": "while", "6988": "we", "6989": "urious", "6990": "rrr", "6991": "osen", "6992": "onna", "6993": "oline", "6994": "ments", "6995": "meal", "6996": "munk", "6997": "itched", "6998": "iona", "6999": "iece", "7000": "ickie", "7001": "cited", "7002": "bee", "7003": "bbing", "7004": "asty", "7005": "aren", "7006": "anwhile", "7007": "Ted", "7008": "Shh", "7009": "Rose", "7010": "Our", "7011": "Oops", "7012": "Bill", "7013": " wishing", "7014": " weeds", "7015": " twinkle", "7016": " trembled", "7017": " trampoline", "7018": " trot", "7019": " toolbox", "7020": " temper", "7021": " superheroes", "7022": " sneaky", "7023": " slither", "7024": " slices", "7025": " skunk", "7026": " sisters", "7027": " sending", "7028": " seems", "7029": " scored", "7030": " policeman", "7031": " passengers", "7032": " onward", "7033": " oatmeal", "7034": " newfound", "7035": " mesmerized", "7036": " lun", "7037": " knees", "7038": " joking", "7039": " imagining", "7040": " helpers", "7041": " hen", "7042": " hearing", "7043": " hallway", "7044": " hour", "7045": " ghosts", "7046": " frowns", "7047": " exercises", "7048": " elf", "7049": " ease", "7050": " drawers", "7051": " displayed", "7052": " dived", "7053": " creamy", "7054": " covers", "7055": " cond", "7056": " chipmunk", "7057": " chosen", "7058": " coup", "7059": " coral", "7060": " bond", "7061": " awesome", "7062": " Up", "7063": " Those", "7064": " Tiny", "7065": " Slowly", "7066": " Friends", "7067": " El", "7068": " Dog", "7069": " Ber", "7070": "\u00c5\u0093Okay", "7071": "weed", "7072": "otte", "7073": "ori", "7074": "oni", "7075": "ibbit", "7076": "emma", "7077": "cope", "7078": "coon", "7079": "arlotte", "7080": "aa", "7081": "Whee", "7082": "Run", "7083": "Meanwhile", "7084": "Fin", "7085": "Claire", "7086": " yourselves", "7087": " wag", "7088": " unfortunately", "7089": " und", "7090": " toward", "7091": " todd", "7092": " surroundings", "7093": " spears", "7094": " source", "7095": " snatched", "7096": " sharks", "7097": " seeker", "7098": " seaweed", "7099": " scratches", "7100": " scraped", "7101": " scamp", "7102": " rule", "7103": " routine", "7104": " prick", "7105": " prettier", "7106": " prun", "7107": " potion", "7108": " pops", "7109": " overcome", "7110": " nasty", "7111": " munch", "7112": " mood", "7113": " master", "7114": " lifts", "7115": " lent", "7116": " inspired", "7117": " hitting", "7118": " granted", "7119": " gasp", "7120": " feeding", "7121": " explod", "7122": " dusty", "7123": " disob", "7124": " designed", "7125": " defe", "7126": " dads", "7127": " curiously", "7128": " corners", "7129": " connect", "7130": " business", "7131": " bricks", "7132": " Tuna", "7133": " Tara", "7134": " Ow", "7135": " Nobody", "7136": " Meg", "7137": " Louise", "7138": " Kiki", "7139": " Johnson", "7140": " Honey", "7141": " Gold", "7142": " Ex", "7143": " Betty", "7144": " Annabel", "7145": " Adam", "7146": "\u00c5\u0093Please", "7147": "\u00c5\u0093But", "7148": "years", "7149": "xophone", "7150": "what", "7151": "ushed", "7152": "tuce", "7153": "step", "7154": "sequ", "7155": "roken", "7156": "rees", "7157": "ounce", "7158": "ita", "7159": "ientist", "7160": "ebs", "7161": "cycle", "7162": "broken", "7163": "aturday", "7164": "ambi", "7165": "amma", "7166": "ados", "7167": "Gina", "7168": "Clara", "7169": "Boo", "7170": "Back", "7171": "Alright", "7172": " won\u00c3\u00a2", "7173": " wobbled", "7174": " vanilla", "7175": " twinkled", "7176": " tricycle", "7177": " toddler", "7178": " tiptoed", "7179": " tasks", "7180": " talented", "7181": " swans", "7182": " stroked", "7183": " stands", "7184": " stitch", "7185": " squin", "7186": " spices", "7187": " slower", "7188": " silent", "7189": " shown", "7190": " seagulls", "7191": " scientist", "7192": " saxophone", "7193": " rushing", "7194": " respond", "7195": " puzzled", "7196": " prayers", "7197": " poster", "7198": " paths", "7199": " oh", "7200": " noses", "7201": " neither", "7202": " neare", "7203": " memb", "7204": " material", "7205": " manag", "7206": " mel", "7207": " lungs", "7208": " lettuce", "7209": " knots", "7210": " humming", "7211": " humans", "7212": " heartbroken", "7213": " height", "7214": " greeted", "7215": " goodies", "7216": " giggles", "7217": " gonna", "7218": " fuzzy", "7219": " flashing", "7220": " despite", "7221": " delivering", "7222": " customers", "7223": " correct", "7224": " conversation", "7225": " consequ", "7226": " concer", "7227": " cobwebs", "7228": " changing", "7229": " artist", "7230": " age", "7231": " aeroplanes", "7232": " Water", "7233": " Take", "7234": " Sid", "7235": " Saturday", "7236": " Only", "7237": " Olive", "7238": " Momma", "7239": " Mina", "7240": " Goodbye", "7241": " Bert", "7242": " X", "7243": " 2", "7244": "vant", "7245": "upt", "7246": "stick", "7247": "rench", "7248": "rig", "7249": "rigued", "7250": "ppa", "7251": "ounced", "7252": "oration", "7253": "nk", "7254": "inda", "7255": "immering", "7256": "iggled", "7257": "iasm", "7258": "espite", "7259": "ccoon", "7260": "band", "7261": "ansf", "7262": "Yummy", "7263": "Woof", "7264": "Sandy", "7265": "Rosie", "7266": "Lena", "7267": "Katie", "7268": "Kim", "7269": "Fred", "7270": "Even", "7271": "Danny", "7272": "Blue", "7273": "Abigail", "7274": " wiping", "7275": " whistles", "7276": " wins", "7277": " type", "7278": " transf", "7279": " tighter", "7280": " throughout", "7281": " thrown", "7282": " thanking", "7283": " thud", "7284": " temperature", "7285": " tapping", "7286": " tapped", "7287": " sweaters", "7288": " surfboard", "7289": " streamers", "7290": " stomped", "7291": " stopping", "7292": " steady", "7293": " spills", "7294": " sled", "7295": " shrug", "7296": " scratching", "7297": " scampered", "7298": " scut", "7299": " sailors", "7300": " sank", "7301": " rotting", "7302": " responsibility", "7303": " repeating", "7304": " reass", "7305": " raccoon", "7306": " rip", "7307": " prunes", "7308": " prickly", "7309": " preparing", "7310": " pokes", "7311": " playtime", "7312": " plain", "7313": " performance", "7314": " penguins", "7315": " pans", "7316": " paintbrush", "7317": " pens", "7318": " neighbours", "7319": " nuzz", "7320": " matters", "7321": " lessons", "7322": " least", "7323": " grassy", "7324": " gardener", "7325": " frowning", "7326": " form", "7327": " final", "7328": " figures", "7329": " exploded", "7330": " examining", "7331": " enthusiasm", "7332": " ends", "7333": " encouraging", "7334": " dreamt", "7335": " dragonfly", "7336": " doorway", "7337": " cubes", "7338": " connected", "7339": " conqu", "7340": " cleared", "7341": " characters", "7342": " chilly", "7343": " center", "7344": " calmly", "7345": " buzzed", "7346": " bulbs", "7347": " breathing", "7348": " bowls", "7349": " bothered", "7350": " buddy", "7351": " bless", "7352": " avocados", "7353": " ais", "7354": " Ty", "7355": " Sunshine", "7356": " Start", "7357": " Squeaky", "7358": " Roxy", "7359": " Quackers", "7360": " Purple", "7361": " Our", "7362": " Jessica", "7363": " Jennie", "7364": " Jean", "7365": " Chickie", "7366": " Birthday", "7367": " Bad", "7368": " Queen", "7369": "\u00e2\u0082\u00ac\u00cb", "7370": "\u00e2\u0082\u00ac\u00cb\u009c", "7371": "\u00c5\u0093My", "7372": "\u00c5\u0093Hey", "7373": "worm", "7374": "veral", "7375": "usband", "7376": "udience", "7377": "sol", "7378": "retty", "7379": "ndparent", "7380": "now", "7381": "itches", "7382": "istory", "7383": "iment", "7384": "ibble", "7385": "ggies", "7386": "fire", "7387": "fall", "7388": "eremy", "7389": "eople", "7390": "cused", "7391": "crow", "7392": "bu", "7393": "awk", "7394": "anny", "7395": "anc", "7396": "ana", "7397": "Tr", "7398": "Quick", "7399": "Mel", "7400": "Dear", "7401": "David", "7402": "By", "7403": "Bunny", "7404": " youngest", "7405": " wouldn\u00c3\u00a2", "7406": " wobble", "7407": " watering", "7408": " wrench", "7409": " veggies", "7410": " untied", "7411": " unlo", "7412": " twisty", "7413": " tunnels", "7414": " troubles", "7415": " tidying", "7416": " thorns", "7417": " testing", "7418": " terrified", "7419": " tasting", "7420": " talks", "7421": " sweep", "7422": " suggestion", "7423": " student", "7424": " stored", "7425": " seesaw", "7426": " several", "7427": " sale", "7428": " rockets", "7429": " robots", "7430": " risks", "7431": " reads", "7432": " quieter", "7433": " pupils", "7434": " printing", "7435": " poems", "7436": " performed", "7437": " pastries", "7438": " particularly", "7439": " parties", "7440": " pound", "7441": " outfits", "7442": " offic", "7443": " napkins", "7444": " napping", "7445": " muscles", "7446": " magnif", "7447": " magazines", "7448": " loops", "7449": " lifting", "7450": " lending", "7451": " leapt", "7452": " laces", "7453": " indeed", "7454": " honked", "7455": " handing", "7456": " husband", "7457": " grandd", "7458": " gracefully", "7459": " grandparent", "7460": " garb", "7461": " focused", "7462": " flown", "7463": " finishing", "7464": " faded", "7465": " experienced", "7466": " driveway", "7467": " donkey", "7468": " dollhouse", "7469": " discussing", "7470": " damaged", "7471": " dip", "7472": " dep", "7473": " cuddles", "7474": " crew", "7475": " craft", "7476": " covering", "7477": " cloudy", "7478": " clues", "7479": " chopped", "7480": " coug", "7481": " bravest", "7482": " blinking", "7483": " beloved", "7484": " battle", "7485": " arranged", "7486": " audience", "7487": " Terry", "7488": " Sleep", "7489": " Rock", "7490": " Pinky", "7491": " Phil", "7492": " Nick", "7493": " Love", "7494": " Frosty", "7495": " Crabby", "7496": " Any", "7497": "\u00c5\u0093Well", "7498": "\u00c5\u0093Hi", "7499": "vie", "7500": "ronaut", "7501": "peck", "7502": "pecker", "7503": "pen", "7504": "ooky", "7505": "opper", "7506": "nnie", "7507": "lets", "7508": "lied", "7509": "initely", "7510": "ilted", "7511": "igning", "7512": "hnnie", "7513": "erm", "7514": "elvet", "7515": "cou", "7516": "boards", "7517": "bbling", "7518": "ading", "7519": "abel", "7520": "aven", "7521": "Tweetie", "7522": "Su", "7523": "Rachel", "7524": "Kate", "7525": "Buddy", "7526": "Bu", "7527": " yielded", "7528": " wrink", "7529": " valued", "7530": " unsure", "7531": " unw", "7532": " typ", "7533": " twisting", "7534": " trotted", "7535": " treated", "7536": " travelling", "7537": " travels", "7538": " ting", "7539": " symbols", "7540": " swaying", "7541": " supplied", "7542": " strongest", "7543": " strips", "7544": " starfish", "7545": " spooky", "7546": " soundly", "7547": " snug", "7548": " smelling", "7549": " slips", "7550": " seashells", "7551": " scarecrow", "7552": " reun", "7553": " quarreling", "7554": " providing", "7555": " pedaled", "7556": " orders", "7557": " offering", "7558": " nearly", "7559": " nibble", "7560": " mayor", "7561": " knights", "7562": " jackets", "7563": " helmets", "7564": " hoo", "7565": " generosity", "7566": " garbage", "7567": " foxes", "7568": " flip", "7569": " expert", "7570": " embarrass", "7571": " drawn", "7572": " distracted", "7573": " cowb", "7574": " couple", "7575": " consequences", "7576": " cons", "7577": " charge", "7578": " campfire", "7579": " burnt", "7580": " brushing", "7581": " breaths", "7582": " bru", "7583": " biting", "7584": " bison", "7585": " admiration", "7586": " activity", "7587": " ache", "7588": " Well", "7589": " Watch", "7590": " Taking", "7591": " Sophia", "7592": " Peppa", "7593": " Mo", "7594": " Macy", "7595": " Kelly", "7596": " Joan", "7597": " Jacky", "7598": " Gabby", "7599": " Floppy", "7600": " Flash", "7601": " Dotty", "7602": " Duck", "7603": " Copper", "7604": " Coco", "7605": " Chip", "7606": " Bessie", "7607": "\u00c5\u0093Where", "7608": "ucker", "7609": "ortunately", "7610": "onse", "7611": "mates", "7612": "ldy", "7613": "ippers", "7614": "int", "7615": "iving", "7616": "endy", "7617": "chievous", "7618": "but", "7619": "aisie", "7620": "Milly", "7621": "Listen", "7622": "Like", "7623": "Keep", "7624": "Jazz", "7625": "Chris", "7626": " yumm", "7627": " wounds", "7628": " woodpecker", "7629": " wobbly", "7630": " wakes", "7631": " wider", "7632": " upside", "7633": " turtles", "7634": " triangles", "7635": " tearing", "7636": " tumbled", "7637": " tipped", "7638": " surv", "7639": " stain", "7640": " squished", "7641": " sprang", "7642": " spoiling", "7643": " spits", "7644": " spells", "7645": " spat", "7646": " slipping", "7647": " scutt", "7648": " scrape", "7649": " scram", "7650": " sadd", "7651": " robbers", "7652": " reunited", "7653": " response", "7654": " rebu", "7655": " rains", "7656": " rather", "7657": " que", "7658": " puppies", "7659": " postman", "7660": " pointy", "7661": " permitted", "7662": " performing", "7663": " peak", "7664": " opport", "7665": " obeyed", "7666": " occ", "7667": " nibb", "7668": " mischievous", "7669": " materials", "7670": " marking", "7671": " miles", "7672": " mer", "7673": " luckily", "7674": " licking", "7675": " leaking", "7676": " inchworm", "7677": " grows", "7678": " granddaughter", "7679": " glued", "7680": " germ", "7681": " forgiveness", "7682": " flaps", "7683": " fires", "7684": " expression", "7685": " dryer", "7686": " dollars", "7687": " discoveries", "7688": " detail", "7689": " definitely", "7690": " decoration", "7691": " decl", "7692": " customer", "7693": " crawls", "7694": " cleaner", "7695": " cheerfully", "7696": " bumps", "7697": " bounces", "7698": " borrowed", "7699": " bomb", "7700": " blocking", "7701": " blast", "7702": " believing", "7703": " behavior", "7704": " astronaut", "7705": " aston", "7706": " arrows", "7707": " Try", "7708": " Stay", "7709": " Sim", "7710": " Roger", "7711": " Ruth", "7712": " Rubb", "7713": " Ralph", "7714": " Pepper", "7715": " Pipp", "7716": " Pam", "7717": " Other", "7718": " Maddie", "7719": " Larry", "7720": " Izzy", "7721": " Gary", "7722": " Frog", "7723": " Fly", "7724": " Eliz", "7725": " Oh", "7726": "\u00e2\u0082\u00ac,", "7727": "\u00c5\u0093Maybe", "7728": "\u00c5\u0093Good", "7729": "urtle", "7730": "used", "7731": "storm", "7732": "rand", "7733": "race", "7734": "perate", "7735": "pit", "7736": "oss", "7737": "isc", "7738": "ilo", "7739": "ido", "7740": "icious", "7741": "iana", "7742": "erg", "7743": "ening", "7744": "covered", "7745": "cloth", "7746": "child", "7747": "cent", "7748": "ca", "7749": "byes", "7750": "azing", "7751": "aying", "7752": "aye", "7753": "asper", "7754": "arla", "7755": "ancis", "7756": "airy", "7757": "ably", "7758": "abeth", "7759": "Watch", "7760": "Two", "7761": "Steve", "7762": "Polly", "7763": "Never", "7764": "Matt", "7765": "Jamie", "7766": "Freddy", "7767": "?!\"", "7768": " wriggled", "7769": " worrying", "7770": " whales", "7771": " weighs", "7772": " visits", "7773": " visitor", "7774": " vibr", "7775": " vehicles", "7776": " tweet", "7777": " touches", "7778": " swimsuit", "7779": " swords", "7780": " sunflowers", "7781": " stroke", "7782": " speaker", "7783": " spies", "7784": " slithered", "7785": " simply", "7786": " shin", "7787": " shady", "7788": " seller", "7789": " scurry", "7790": " scrambled", "7791": " scolds", "7792": " scri", "7793": " sill", "7794": " roars", "7795": " puppet", "7796": " prints", "7797": " presses", "7798": " pollen", "7799": " playhouse", "7800": " planets", "7801": " picnics", "7802": " peeled", "7803": " passports", "7804": " parted", "7805": " pantry", "7806": " opportunity", "7807": " mate", "7808": " laying", "7809": " joyful", "7810": " intrigued", "7811": " inj", "7812": " hike", "7813": " grandchild", "7814": " goodbyes", "7815": " glittery", "7816": " forgets", "7817": " firefighter", "7818": " exh", "7819": " except", "7820": " elbow", "7821": " efforts", "7822": " echoed", "7823": " drivers", "7824": " disturbing", "7825": " disobey", "7826": " diamonds", "7827": " ding", "7828": " changes", "7829": " caw", "7830": " burying", "7831": " buckled", "7832": " bothering", "7833": " blond", "7834": " beetles", "7835": " beaming", "7836": " banged", "7837": " automobiles", "7838": " antic", "7839": " annoyed", "7840": " agrees", "7841": " afar", "7842": " adults", "7843": " Velvet", "7844": " Strip", "7845": " Sweet", "7846": " Sw", "7847": " Rubber", "7848": " Robbie", "7849": " Mamma", "7850": " Keep", "7851": " Hootie", "7852": " Henny", "7853": " Hannah", "7854": " Finny", "7855": " Elsie", "7856": " Although", "7857": "\u00c5\u0093Sure", "7858": "wise", "7859": "undred", "7860": "ulp", "7861": "ulpture", "7862": "tha", "7863": "tto", "7864": "the", "7865": "shirt", "7866": "please", "7867": "ossom", "7868": "orter", "7869": "order", "7870": "ooking", "7871": "ngel", "7872": "lescope", "7873": "itude", "7874": "isky", "7875": "iscuit", "7876": "iolet", "7877": "ibit", "7878": "iens", "7879": "ertain", "7880": "enn", "7881": "dding", "7882": "couraged", "7883": "cul", "7884": "cake", "7885": "bird", "7886": "belt", "7887": "atty", "7888": "Yesterday", "7889": "Vroom", "7890": "Roar", "7891": "Ruth", "7892": "Quack", "7893": "Katy", "7894": "Je", "7895": "Fo", "7896": "Cindy", "7897": "Che", "7898": "Arrr", "7899": "Adam", "7900": "...\"", "7901": " zookeeper", "7902": " zipping", "7903": " yawning", "7904": " within", "7905": " wisely", "7906": " whose", "7907": " whispering", "7908": " wasting", "7909": " visitors", "7910": " understands", "7911": " twin", "7912": " topp", "7913": " threads", "7914": " throne", "7915": " teachers", "7916": " telescope", "7917": " swap", "7918": " successfully", "7919": " stomp", "7920": " squinted", "7921": " spilling", "7922": " spong", "7923": " snuggle", "7924": " skies", "7925": " sirens", "7926": " serving", "7927": " servant", "7928": " self", "7929": " seatbelt", "7930": " sculpture", "7931": " sails", "7932": " sou", "7933": " sens", "7934": " rubbish", "7935": " robber", "7936": " reversed", "7937": " repeats", "7938": " repairman", "7939": " reassured", "7940": " react", "7941": " rin", "7942": " quilt", "7943": " prevented", "7944": " poss", "7945": " pigeons", "7946": " panicked", "7947": " paddling", "7948": " puck", "7949": " pace", "7950": " officers", "7951": " occas", "7952": " nuzzled", "7953": " newspapers", "7954": " minds", "7955": " merma", "7956": " matey", "7957": " marve", "7958": " loading", "7959": " knocking", "7960": " knives", "7961": " instantly", "7962": " hops", "7963": " hissing", "7964": " heroes", "7965": " guide", "7966": " girl\u00c3\u00a2", "7967": " flooded", "7968": " firmly", "7969": " firefly", "7970": " fever", "7971": " fascinating", "7972": " exploration", "7973": " exhibit", "7974": " exch", "7975": " elect", "7976": " earned", "7977": " dressing", "7978": " drown", "7979": " defeated", "7980": " declared", "7981": " dears", "7982": " counts", "7983": " correctly", "7984": " conquered", "7985": " climber", "7986": " classmates", "7987": " chefs", "7988": " bends", "7989": " baths", "7990": " bandages", "7991": " awful", "7992": " astonished", "7993": " appreciated", "7994": " angels", "7995": " aliens", "7996": " aisle", "7997": " aimed", "7998": " White", "7999": " Wendy", "8000": " Time", "8001": " Sparky", "8002": " Rover", "8003": " Puff", "8004": " Otto", "8005": " Maisie", "8006": " Lion", "8007": " Janie", "8008": " Jonny", "8009": " Flora", "8010": " Despite", "8011": " Charlotte", "8012": " Catie", "8013": " Colin", "8014": " Butter", "8015": " Ameli", "8016": " Ash", "8017": " Ag", "8018": " icing", "8019": " 9", "8020": "\u00c5\u0093Who", "8021": "\u00c5\u0093Ok", "8022": "\u00c5\u0093Mom", "8023": "\u00c5\u0093Be", "8024": "wk", "8025": "utter", "8026": "uctor", "8027": "tern", "8028": "ssy", "8029": "screen", "8030": "sie", "8031": "sery", "8032": "rier", "8033": "rons", "8034": "osure", "8035": "oodles", "8036": "ooke", "8037": "onya", "8038": "obably", "8039": "ollen", "8040": "lfie", "8041": "lt", "8042": "losure", "8043": "ittered", "8044": "iter", "8045": "issa", "8046": "ipation", "8047": "iley", "8048": "ighing", "8049": "iel", "8050": "filled", "8051": "enery", "8052": "eech", "8053": "dges", "8054": "cat", "8055": "ausing", "8056": "attered", "8057": "ative", "8058": "arlings", "8059": "aps", "8060": "antha", "8061": "adually", "8062": "acey", "8063": "Whenever", "8064": "Very", "8065": "Someone", "8066": "Surpr", "8067": "Since", "8068": "Ollie", "8069": "Mon", "8070": "Mickey", "8071": "Leave", "8072": "Gabby", "8073": "Chloe", "8074": "Car", "8075": "Betsy", "8076": "Am", "8077": "Abby", "8078": "11", "8079": "!'.", "8080": " writer", "8081": " wolves", "8082": " wiggly", "8083": " waters", "8084": " warmer", "8085": " warri", "8086": " vibrant", "8087": " untie", "8088": " uniforms", "8089": " tubes", "8090": " transformed", "8091": " tires", "8092": " tuck", "8093": " tilted", "8094": " swollen", "8095": " survive", "8096": " sunscreen", "8097": " suits", "8098": " strum", "8099": " steer", "8100": " squeaked", "8101": " sponge", "8102": " spins", "8103": " speech", "8104": " soaking", "8105": " smashed", "8106": " shorter", "8107": " shh", "8108": " sewed", "8109": " scuttled", "8110": " scattering", "8111": " scenery", "8112": " scen", "8113": " sandy", "8114": " sadder", "8115": " sav", "8116": " rows", "8117": " responded", "8118": " respected", "8119": " reminds", "8120": " raking", "8121": " rumbling", "8122": " roo", "8123": " rips", "8124": " queens", "8125": " prod", "8126": " pretz", "8127": " pressing", "8128": " preschool", "8129": " probably", "8130": " popsic", "8131": " pleas", "8132": " plumber", "8133": " plo", "8134": " poop", "8135": " nurses", "8136": " nursery", "8137": " noticing", "8138": " nodding", "8139": " munching", "8140": " million", "8141": " messes", "8142": " manager", "8143": " manners", "8144": " mac", "8145": " kings", "8146": " ignoring", "8147": " hotter", "8148": " hooks", "8149": " hiss", "8150": " heaven", "8151": " hawk", "8152": " hundred", "8153": " guests", "8154": " grandparents", "8155": " goats", "8156": " gems", "8157": " gest", "8158": " gears", "8159": " forgiving", "8160": " forests", "8161": " floors", "8162": " enclosure", "8163": " edges", "8164": " dripping", "8165": " dodged", "8166": " discouraged", "8167": " designs", "8168": " die", "8169": " date", "8170": " darlings", "8171": " cushions", "8172": " countries", "8173": " coughed", "8174": " consider", "8175": " conductor", "8176": " concert", "8177": " convin", "8178": " checks", "8179": " chatted", "8180": " carts", "8181": " calming", "8182": " causing", "8183": " bracelets", "8184": " bride", "8185": " bowing", "8186": " blonde", "8187": " blushed", "8188": " blown", "8189": " birdy", "8190": " birdhouse", "8191": " behaving", "8192": " auntie", "8193": " astronauts", "8194": " apologised", "8195": " aprons", "8196": " anticipation", "8197": " answering", "8198": " allerg", "8199": " active", "8200": " action", "8201": " actor", "8202": " Willie", "8203": " Trust", "8204": " Turtle", "8205": " Tucker", "8206": " Spidey", "8207": " Spe", "8208": " Sleepy", "8209": " Say", "8210": " Sand", "8211": " Quick", "8212": " Poor", "8213": " Never", "8214": " Ms", "8215": " Ma", "8216": " Looking", "8217": " Isn", "8218": " Isla", "8219": " Hopper", "8220": " History", "8221": " Francis", "8222": " Faye", "8223": " Brooke", "8224": " Barry", "8225": " Bambi", "8226": " Angel", "8227": " Abbie", "8228": " Okay", "8229": "\u00c5\u0093If", "8230": "\u00c5\u0093The", "8231": "yl", "8232": "well", "8233": "von", "8234": "vonne", "8235": "ugging", "8236": "uffin", "8237": "udged", "8238": "tment", "8239": "shaped", "8240": "she", "8241": "rent", "8242": "po", "8243": "otch", "8244": "ordinary", "8245": "oped", "8246": "mered", "8247": "mallow", "8248": "mallows", "8249": "line", "8250": "lers", "8251": "ironment", "8252": "ilities", "8253": "ieves", "8254": "ippy", "8255": "ial", "8256": "faction", "8257": "fl", "8258": "etchup", "8259": "ennis", "8260": "ddie", "8261": "centr", "8262": "cr", "8263": "bie", "8264": "ators", "8265": "ata", "8266": "arshmallows", "8267": "agic", "8268": "Which", "8269": "True", "8270": "Sadie", "8271": "Sunny", "8272": "Red", "8273": "Put", "8274": "Mina", "8275": "Mila", "8276": "Hurry", "8277": "Hannah", "8278": "HE", "8279": "Feeling", "8280": "Any", "8281": ",'", "8282": " winds", "8283": " whimp", "8284": " warmly", "8285": " thieves", "8286": " temptation", "8287": " tails", "8288": " tables", "8289": " surely", "8290": " suffered", "8291": " stamped", "8292": " stinky", "8293": " squeezes", "8294": " squeak", "8295": " squir", "8296": " spelling", "8297": " speeding", "8298": " spare", "8299": " softened", "8300": " sneaking", "8301": " snort", "8302": " smallest", "8303": " smelt", "8304": " slowed", "8305": " shrunk", "8306": " shines", "8307": " scares", "8308": " scent", "8309": " satisfaction", "8310": " runner", "8311": " robin", "8312": " retri", "8313": " reminding", "8314": " recorder", "8315": " reappeared", "8316": " purrs", "8317": " prog", "8318": " poses", "8319": " planting", "8320": " plugged", "8321": " plug", "8322": " purp", "8323": " pours", "8324": " ornaments", "8325": " occasion", "8326": " nights", "8327": " nearest", "8328": " motorb", "8329": " mosquitoes", "8330": " mommies", "8331": " meaning", "8332": " magnifying", "8333": " magician", "8334": " marshmallows", "8335": " lowered", "8336": " loudest", "8337": " kittens", "8338": " ketchup", "8339": " joining", "8340": " jobs", "8341": " ironing", "8342": " intently", "8343": " guards", "8344": " grandson", "8345": " grabbing", "8346": " glittered", "8347": " glimmering", "8348": " glided", "8349": " gesture", "8350": " germs", "8351": " gri", "8352": " gazing", "8353": " fond", "8354": " floats", "8355": " faith", "8356": " failed", "8357": " environment", "8358": " engines", "8359": " electric", "8360": " elder", "8361": " ev", "8362": " em", "8363": " diaper", "8364": " court", "8365": " cotton", "8366": " coop", "8367": " convinced", "8368": " container", "8369": " concentr", "8370": " colder", "8371": " cheers", "8372": " capture", "8373": " bushy", "8374": " buses", "8375": " beast", "8376": " bound", "8377": " Zara", "8378": " Win", "8379": " Under", "8380": " Te", "8381": " Startled", "8382": " Squeak", "8383": " Speedy", "8384": " Rainbow", "8385": " Make", "8386": " Listen", "8387": " Lions", "8388": " Jul", "8389": " Jax", "8390": " Hold", "8391": " Frankie", "8392": " Fiona", "8393": " Eat", "8394": " Don\u00c3\u00a2", "8395": " Carla", "8396": " Cr", "8397": " Cathy", "8398": " Bertha", "8399": " ouch", "8400": " 4", "8401": "\u00e2\u0082\u00ac\u00c2", "8402": "\u00e2\u0082\u00ac\u00c2\u00a6", "8403": "\u00c5\u0093See", "8404": "\u00c5\u0093Now", "8405": "whel", "8406": "whelmed", "8407": "water", "8408": "uart", "8409": "that", "8410": "steps", "8411": "solut", "8412": "riet", "8413": "rap", "8414": "rup", "8415": "rough", "8416": "oyal", "8417": "ousy", "8418": "ky", "8419": "ka", "8420": "isions", "8421": "ipes", "8422": "ingly", "8423": "ilky", "8424": "ika", "8425": "ics", "8426": "icate", "8427": "hind", "8428": "gets", "8429": "getic", "8430": "free", "8431": "essa", "8432": "empt", "8433": "ecca", "8434": "dog", "8435": "citedly", "8436": "bba", "8437": "bell", "8438": "atural", "8439": "aroni", "8440": "anced", "8441": "ample", "8442": "acle", "8443": "Surprise", "8444": "Rory", "8445": "Pl", "8446": "Ol", "8447": "Mikey", "8448": "Moo", "8449": "Mine", "8450": "Michael", "8451": "Lou", "8452": "Kids", "8453": "Karen", "8454": "Jacky", "8455": "June", "8456": "Jump", "8457": "Ju", "8458": "Jessie", "8459": "Jacob", "8460": "Everyday", "8461": "Danger", "8462": "Curious", "8463": "Bubbles", "8464": "Beep", "8465": "Always", "8466": " yummiest", "8467": " wiser", "8468": " whoo", "8469": " welcoming", "8470": " waterfall", "8471": " warrior", "8472": " unpacking", "8473": " types", "8474": " trading", "8475": " traded", "8476": " toss", "8477": " thicker", "8478": " textures", "8479": " teamwork", "8480": " tum", "8481": " tin", "8482": " tested", "8483": " syrup", "8484": " swayed", "8485": " surrendered", "8486": " storms", "8487": " stumble", "8488": " sprays", "8489": " softest", "8490": " sniffing", "8491": " snaps", "8492": " snoring", "8493": " slapping", "8494": " ships", "8495": " sheets", "8496": " scurrying", "8497": " science", "8498": " sandpit", "8499": " salon", "8500": " rooster", "8501": " results", "8502": " reindeers", "8503": " refuse", "8504": " rebuild", "8505": " reappear", "8506": " recess", "8507": " rails", "8508": " rays", "8509": " rats", "8510": " presented", "8511": " posit", "8512": " plopped", "8513": " petting", "8514": " peacefulness", "8515": " peep", "8516": " pays", "8517": " palms", "8518": " packages", "8519": " overwhelmed", "8520": " nets", "8521": " noodles", "8522": " natural", "8523": " motorbike", "8524": " mooed", "8525": " miller", "8526": " mermaid", "8527": " members", "8528": " melons", "8529": " munched", "8530": " mend", "8531": " lookout", "8532": " loads", "8533": " locks", "8534": " languages", "8535": " lava", "8536": " kneeling", "8537": " kayaking", "8538": " instrument", "8539": " inter", "8540": " guessing", "8541": " grip", "8542": " goo", "8543": " ge", "8544": " gates", "8545": " gall", "8546": " freezing", "8547": " force", "8548": " folds", "8549": " fishy", "8550": " fills", "8551": " facing", "8552": " example", "8553": " energetic", "8554": " energ", "8555": " encount", "8556": " emerged", "8557": " drowned", "8558": " doorbell", "8559": " decisions", "8560": " deed", "8561": " dot", "8562": " current", "8563": " crowns", "8564": " croaked", "8565": " cousins", "8566": " cooed", "8567": " contented", "8568": " confidently", "8569": " comforting", "8570": " combed", "8571": " cocoon", "8572": " cloak", "8573": " chugged", "8574": " cartwhe", "8575": " caves", "8576": " bounded", "8577": " benches", "8578": " beeped", "8579": " backs", "8580": " bitten", "8581": " awhile", "8582": " attempt", "8583": " artwork", "8584": " announced", "8585": " allergic", "8586": " although", "8587": " adventurer", "8588": " Tyler", "8589": " Tre", "8590": " Tigger", "8591": " Ste", "8592": " Shadow", "8593": " Rory", "8594": " Pebby", "8595": " Pippy", "8596": " Over", "8597": " Ouch", "8598": " Nana", "8599": " Nell", "8600": " Muffin", "8601": " La", "8602": " Holly", "8603": " Grand", "8604": " Goldie", "8605": " Glow", "8606": " Feeling", "8607": " Elizabeth", "8608": " Eddie", "8609": " Dove", "8610": " Dull", "8611": " Dee", "8612": " Carlos", "8613": " Carly", "8614": " Cow", "8615": " Che", "8616": " Bubba", "8617": " Bobbie", "8618": " Baldy", "8619": " Auntie", "8620": " Af", "8621": " 911", "8622": " ill", "8623": "\u00c5\u0093Of", "8624": "ylves", "8625": "ylvester", "8626": "wen", "8627": "val", "8628": "uster", "8629": "uffed", "8630": "toise", "8631": "ths", "8632": "scotch", "8633": "rica", "8634": "rum", "8635": "quet", "8636": "plash", "8637": "ously", "8638": "ouquet", "8639": "opsy", "8640": "ocul", "8641": "oculars", "8642": "oard", "8643": "lle", "8644": "llas", "8645": "iped", "8646": "iller", "8647": "ighting", "8648": "igi", "8649": "ictor", "8650": "ibly", "8651": "hog", "8652": "esus", "8653": "ection", "8654": "earing", "8655": "da", "8656": "cher", "8657": "bit", "8658": "aula", "8659": "atitude", "8660": "antrum", "8661": "anted", "8662": "anion", "8663": "alled", "8664": "aint", "8665": "acks", "8666": "Zero", "8667": "Uncle", "8668": "Take", "8669": "Sus", "8670": "Slowly", "8671": "Silly", "8672": "Remy", "8673": "Pretty", "8674": "Momma", "8675": "Maya", "8676": "Mo", "8677": "Lucky", "8678": "Jenna", "8679": "Jeff", "8680": "Jess", "8681": "Jerry", "8682": "Follow", "8683": "Deal", "8684": "Choo", "8685": "Carly", "8686": "Carl", "8687": "Becky", "8688": "Beth", "8689": "00", "8690": " zips", "8691": " worn", "8692": " what\u00c3\u00a2", "8693": " umbrellas", "8694": " tummies", "8695": " traveling", "8696": " tortoise", "8697": " thunderstorm", "8698": " thumbs", "8699": " tying", "8700": " tumbling", "8701": " tantrum", "8702": " sweaty", "8703": " surprising", "8704": " stores", "8705": " stew", "8706": " stitches", "8707": " squeezing", "8708": " squeal", "8709": " sometime", "8710": " snowfl", "8711": " sniffs", "8712": " sleeps", "8713": " slurp", "8714": " slug", "8715": " skeletons", "8716": " skirts", "8717": " shovels", "8718": " shooed", "8719": " shallow", "8720": " seasons", "8721": " screws", "8722": " scrub", "8723": " scooters", "8724": " scoops", "8725": " scene", "8726": " sly", "8727": " sinking", "8728": " reversing", "8729": " revealing", "8730": " restoring", "8731": " rev", "8732": " races", "8733": " rowed", "8734": " ribbit", "8735": " progress", "8736": " proved", "8737": " pedaling", "8738": " pearls", "8739": " purch", "8740": " observing", "8741": " motorcycles", "8742": " mom\u00c3\u00a2", "8743": " meowing", "8744": " macaroni", "8745": " mitt", "8746": " mast", "8747": " lipstick", "8748": " levers", "8749": " labels", "8750": " jumper", "8751": " juic", "8752": " judges", "8753": " joked", "8754": " insisting", "8755": " increasing", "8756": " hunting", "8757": " hummed", "8758": " hopscotch", "8759": " hooves", "8760": " hisses", "8761": " hesitation", "8762": " heavily", "8763": " haven", "8764": " gratitude", "8765": " glittering", "8766": " gasps", "8767": " gardens", "8768": " footsteps", "8769": " flashed", "8770": " fights", "8771": " facts", "8772": " extraordinary", "8773": " explains", "8774": " explaining", "8775": " exercising", "8776": " exchange", "8777": " evil", "8778": " erupt", "8779": " erase", "8780": " echo", "8781": " dolly", "8782": " dump", "8783": " dou", "8784": " dong", "8785": " crocodiles", "8786": " crafts", "8787": " continuing", "8788": " considerate", "8789": " compliment", "8790": " companion", "8791": " coach", "8792": " closing", "8793": " cleans", "8794": " clicked", "8795": " chopping", "8796": " chicks", "8797": " chill", "8798": " cares", "8799": " carefree", "8800": " certain", "8801": " brightest", "8802": " boil", "8803": " binoculars", "8804": " bouquet", "8805": " attacked", "8806": " applause", "8807": " amused", "8808": " allowing", "8809": " alley", "8810": " address", "8811": " achievement", "8812": " aboard", "8813": " You\u00c3\u00a2", "8814": " Tia", "8815": " Susy", "8816": " Stitch", "8817": " Stan", "8818": " Sonya", "8819": " Rosy", "8820": " Ran", "8821": " Peep", "8822": " Pick", "8823": " Pen", "8824": " Mousy", "8825": " Milo", "8826": " Loyal", "8827": " Linda", "8828": " Knight", "8829": " Kathy", "8830": " Karen", "8831": " Jeremy", "8832": " Hug", "8833": " Har", "8834": " Elsa", "8835": " Cocoa", "8836": " Curious", "8837": " Africa", "8838": " Ana", "8839": " Alfie", "8840": "\u00c5\u0093Yay", "8841": "\u00c5\u0093H", "8842": "\u00c3\u0083", "8843": "ware", "8844": "vroom", "8845": "vince", "8846": "usa", "8847": "urphy", "8848": "urf", "8849": "upert", "8850": "unicate", "8851": "stand", "8852": "saw", "8853": "sa", "8854": "rily", "8855": "pect", "8856": "para", "8857": "parable", "8858": "ousand", "8859": "osa", "8860": "ormation", "8861": "oplets", "8862": "onies", "8863": "oned", "8864": "olby", "8865": "nival", "8866": "manda", "8867": "lled", "8868": "immered", "8869": "ilda", "8870": "iggie", "8871": "idents", "8872": "idence", "8873": "hny", "8874": "gre", "8875": "erpiece", "8876": "erina", "8877": "emon", "8878": "emies", "8879": "elope", "8880": "ew", "8881": "ccidents", "8882": "atre", "8883": "atilda", "8884": "aret", "8885": "arger", "8886": "apot", "8887": "antern", "8888": "amil", "8889": "acles", "8890": "about", "8891": "Using", "8892": "Tara", "8893": "THE", "8894": "Suzy", "8895": "Spike", "8896": "Spark", "8897": "Shoo", "8898": "Ricky", "8899": "Ribbit", "8900": "RO", "8901": "Playing", "8902": "People", "8903": "Out", "8904": "Nice", "8905": "Move", "8906": "Kayla", "8907": "Jackie", "8908": "Joy", "8909": "Jan", "8910": "El", "8911": "Dee", "8912": "Betty", "8913": "Br", "8914": "Boys", "8915": "Both", "8916": "Bert", "8917": "Anne", "8918": "Achoo", "8919": "',", "8920": " wealth", "8921": " weighing", "8922": " wanna", "8923": " untangled", "8924": " unicorns", "8925": " trusty", "8926": " tripping", "8927": " traps", "8928": " tidied", "8929": " tickling", "8930": " theatre", "8931": " tempted", "8932": " teams", "8933": " teapot", "8934": " tastiest", "8935": " talents", "8936": " tablet", "8937": " swirls", "8938": " sweetly", "8939": " swoop", "8940": " switched", "8941": " swat", "8942": " supporting", "8943": " stuffing", "8944": " squawk", "8945": " sprinkle", "8946": " solving", "8947": " softness", "8948": " soda", "8949": " snowflakes", "8950": " sniffled", "8951": " sneaks", "8952": " sleigh", "8953": " singers", "8954": " shrugs", "8955": " shuff", "8956": " shave", "8957": " shall", "8958": " sensation", "8959": " scree", "8960": " roundabout", "8961": " returning", "8962": " relaxing", "8963": " raising", "8964": " rink", "8965": " rack", "8966": " questioned", "8967": " quacking", "8968": " purchase", "8969": " poisoned", "8970": " pointer", "8971": " popping", "8972": " pizzas", "8973": " peeped", "8974": " pandas", "8975": " oceans", "8976": " necks", "8977": " napped", "8978": " musicians", "8979": " movements", "8980": " moonlight", "8981": " milksh", "8982": " messed", "8983": " masterpiece", "8984": " massages", "8985": " loc", "8986": " lies", "8987": " level", "8988": " layer", "8989": " larger", "8990": " lantern", "8991": " journeys", "8992": " joins", "8993": " invites", "8994": " inseparable", "8995": " improving", "8996": " hurricanes", "8997": " hunters", "8998": " hundreds", "8999": " honesty", "9000": " hedgehog", "9001": " healthier", "9002": " headache", "9003": " hardest", "9004": " hadn\u00c3\u00a2", "9005": " hood", "9006": " guarding", "9007": " gratefully", "9008": " grump", "9009": " grumbled", "9010": " geese", "9011": " gaps", "9012": " funn", "9013": " frustration", "9014": " forgives", "9015": " floaty", "9016": " flock", "9017": " flips", "9018": " fireflies", "9019": " feathered", "9020": " expecting", "9021": " enemies", "9022": " dripped", "9023": " droplets", "9024": " disobeyed", "9025": " disappointment", "9026": " differences", "9027": " depths", "9028": " demanding", "9029": " dev", "9030": " deck", "9031": " dashed", "9032": " cupcake", "9033": " crisp", "9034": " cowboys", "9035": " convince", "9036": " compete", "9037": " communicate", "9038": " common", "9039": " command", "9040": " clut", "9041": " cheaper", "9042": " chatting", "9043": " charm", "9044": " chin", "9045": " carries", "9046": " carnival", "9047": " braver", "9048": " boarded", "9049": " boiled", "9050": " bleated", "9051": " blamed", "9052": " blades", "9053": " belongings", "9054": " bells", "9055": " behaviour", "9056": " beautifully", "9057": " ballerina", "9058": " badger", "9059": " bait", "9060": " born", "9061": " bas", "9062": " baker", "9063": " appet", "9064": " anger", "9065": " amongst", "9066": " alongside", "9067": " airplanes", "9068": " adds", "9069": " ability", "9070": " aband", "9071": " aim", "9072": " Yvonne", "9073": " Welcome", "9074": " Vroom", "9075": " Tomorrow", "9076": " Todd", "9077": " Tigers", "9078": " Starla", "9079": " Shelly", "9080": " Samantha", "9081": " Sylvester", "9082": " Rocky", "9083": " Robert", "9084": " Rani", "9085": " Pippin", "9086": " Patty", "9087": " Per", "9088": " Oak", "9089": " Number", "9090": " Nice", "9091": " Miller", "9092": " Lenny", "9093": " Lacey", "9094": " Johnnie", "9095": " Janet", "9096": " Jesus", "9097": " Inny", "9098": " Im", "9099": " Hugo", "9100": " Hope", "9101": " Granny", "9102": " Gray", "9103": " Gemma", "9104": " Flopsy", "9105": " Fido", "9106": " Emma\u00c3\u00a2", "9107": " Elly", "9108": " Cle", "9109": " Bernie", "9110": " Bones", "9111": " Biff", "9112": " Another", "9113": " Allie", "9114": " Along", "9115": " Alan", "9116": " Ar", "9117": " Accidents", "9118": "\u00c5\u0093We\u00c3\u00a2", "9119": "\u00c5\u0093Daddy", "9120": "wee", "9121": "venir", "9122": "urger", "9123": "umm", "9124": "ullaby", "9125": "uggy", "9126": "uca", "9127": "ubbs", "9128": "uke", "9129": "uess", "9130": "toed", "9131": "speople", "9132": "solutely", "9133": "reg", "9134": "racey", "9135": "rupt", "9136": "phew", "9137": "past", "9138": "pan", "9139": "ows", "9140": "orgeous", "9141": "orty", "9142": "oody", "9143": "opp", "9144": "of", "9145": "nings", "9146": "mary", "9147": "lest", "9148": "lish", "9149": "lia", "9150": "izzi", "9151": "izmo", "9152": "ixie", "9153": "isted", "9154": "iring", "9155": "inkle", "9156": "inging", "9157": "inct", "9158": "iam", "9159": "hocol", "9160": "hocolate", "9161": "hings", "9162": "ession", "9163": "ering", "9164": "elped", "9165": "elicious", "9166": "evin", "9167": "ded", "9168": "cutter", "9169": "balls", "9170": "atha", "9171": "arley", "9172": "angle", "9173": "amiliar", "9174": "alty", "9175": "alt", "9176": "ahlia", "9177": "Try", "9178": "Tam", "9179": "Still", "9180": "Stella", "9181": "Rob", "9182": "Poppy", "9183": "Pip", "9184": "Phil", "9185": "Pe", "9186": "Nutty", "9187": "Nick", "9188": "Momo", "9189": "Martha", "9190": "Frankie", "9191": "Fortunately", "9192": "Each", "9193": "Daniel", "9194": "Dog", "9195": "Cheese", "9196": "Bo", "9197": "Ana", "9198": " zippers", "9199": " yelped", "9200": " wrinkled", "9201": " wond", "9202": " winding", "9203": " whoosh", "9204": " whoever", "9205": " whined", "9206": " washes", "9207": " warmest", "9208": " waking", "9209": " waded", "9210": " unlocking", "9211": " unloaded", "9212": " unfamiliar", "9213": " unfair", "9214": " unicycle", "9215": " uncovered", "9216": " twists", "9217": " tunes", "9218": " trunks", "9219": " treas", "9220": " trades", "9221": " townspeople", "9222": " toad", "9223": " tingling", "9224": " tickles", "9225": " thump", "9226": " thousand", "9227": " tests", "9228": " tablecloth", "9229": " ties", "9230": " surrounding", "9231": " stroller", "9232": " souvenir", "9233": " snowing", "9234": " snorted", "9235": " sneezes", "9236": " slight", "9237": " sincere", "9238": " shinier", "9239": " scratchy", "9240": " scre", "9241": " sus", "9242": " signing", "9243": " section", "9244": " runny", "9245": " rewarding", "9246": " revved", "9247": " repairing", "9248": " repairs", "9249": " rely", "9250": " raked", "9251": " rises", "9252": " purpose", "9253": " protection", "9254": " projects", "9255": " pretzel", "9256": " pounds", "9257": " positive", "9258": " popsicle", "9259": " pleasant", "9260": " pennies", "9261": " pecking", "9262": " partner", "9263": " parrots", "9264": " pail", "9265": " ponies", "9266": " papa", "9267": " owns", "9268": " ostriches", "9269": " opinions", "9270": " ogre", "9271": " nightmares", "9272": " nibbling", "9273": " necklaces", "9274": " nephew", "9275": " mustered", "9276": " mornings", "9277": " mooing", "9278": " moons", "9279": " mitts", "9280": " mindful", "9281": " milkshake", "9282": " member", "9283": " meadows", "9284": " mattered", "9285": " man\u00c3\u00a2", "9286": " lumberj", "9287": " loyalty", "9288": " loos", "9289": " loses", "9290": " lobby", "9291": " listener", "9292": " lighthouse", "9293": " laws", "9294": " launched", "9295": " lace", "9296": " lush", "9297": " lullaby", "9298": " knitting", "9299": " knit", "9300": " killed", "9301": " introducing", "9302": " instinct", "9303": " instant", "9304": " inju", "9305": " incredibly", "9306": " inches", "9307": " imaginations", "9308": " imaginary", "9309": " hunger", "9310": " horri", "9311": " hoops", "9312": " hollow", "9313": " heights", "9314": " healing", "9315": " hatched", "9316": " harmful", "9317": " huffed", "9318": " hudd", "9319": " guided", "9320": " groups", "9321": " greeting", "9322": " glared", "9323": " galloped", "9324": " gorgeous", "9325": " gad", "9326": " furious", "9327": " forts", "9328": " formed", "9329": " foam", "9330": " fleas", "9331": " flashes", "9332": " firefighters", "9333": " faint", "9334": " energized", "9335": " elves", "9336": " double", "9337": " disagreeing", "9338": " detect", "9339": " desperate", "9340": " designing", "9341": " deeply", "9342": " dances", "9343": " crowded", "9344": " coolest", "9345": " connection", "9346": " confidence", "9347": " condition", "9348": " community", "9349": " collap", "9350": " checkout", "9351": " chief", "9352": " chatter", "9353": " caterpillars", "9354": " calmer", "9355": " cafe", "9356": " burger", "9357": " brightened", "9358": " bombs", "9359": " blessed", "9360": " blues", "9361": " blob", "9362": " blade", "9363": " becomes", "9364": " beating", "9365": " bea", "9366": " banging", "9367": " avoided", "9368": " approach", "9369": " apology", "9370": " angrier", "9371": " ank", "9372": " access", "9373": " abandoned", "9374": " Wipe", "9375": " Whe", "9376": " Violet", "9377": " Tuesdays", "9378": " Toot", "9379": " Tw", "9380": " Stripes", "9381": " Stuart", "9382": " Shade", "9383": " Seeing", "9384": " Sandra", "9385": " Sir", "9386": " Since", "9387": " Silly", "9388": " Ready", "9389": " Riding", "9390": " Print", "9391": " Percy", "9392": " Penelope", "9393": " Pr", "9394": " Power", "9395": " Monkey", "9396": " Melvin", "9397": " Man", "9398": " Lea", "9399": " Luggage", "9400": " Light", "9401": " Ky", "9402": " Kris", "9403": " Julia", "9404": " July", "9405": " Jody", "9406": " Itsy", "9407": " Isab", "9408": " Inch", "9409": " Great", "9410": " Gigi", "9411": " Flip", "9412": " Fisky", "9413": " Evie", "9414": " Ding", "9415": " Dennis", "9416": " Deal", "9417": " Dale", "9418": " Cluck", "9419": " Chew", "9420": " Candy", "9421": " Bossy", "9422": " Bobb", "9423": " Blink", "9424": " Black", "9425": " Birdy", "9426": " Bean", "9427": " Bri", "9428": " Bounce", "9429": " Boo", "9430": " Amen", "9431": " Amanda", "9432": "\u00c5\u0093OK", "9433": "\u00c5\u0093Mum", "9434": "\u00c5\u0093M", "9435": "zip", "9436": "ylan", "9437": "weeny", "9438": "woo", "9439": "ushes", "9440": "urfers", "9441": "urdy", "9442": "umball", "9443": "uction", "9444": "uel", "9445": "ua", "9446": "tons", "9447": "ship", "9448": "site", "9449": "rested", "9450": "randy", "9451": "ruck", "9452": "rous", "9453": "rant", "9454": "ptop", "9455": "prin", "9456": "pr", "9457": "oyage", "9458": "osite", "9459": "ordan", "9460": "oopy", "9461": "ooks", "9462": "onest", "9463": "omers", "9464": "omersaul", "9465": "oga", "9466": "odore", "9467": "ocks", "9468": "nif", "9469": "nifer", "9470": "moke", "9471": "mony", "9472": "lephant", "9473": "lo", "9474": "keepers", "9475": "ker", "9476": "just", "9477": "isdom", "9478": "isbee", "9479": "irly", "9480": "indi", "9481": "icycles", "9482": "ical", "9483": "hearted", "9484": "heard", "9485": "hh", "9486": "fus", "9487": "flow", "9488": "five", "9489": "ending", "9490": "ealing", "9491": "coming", "9492": "brina", "9493": "bum", "9494": "belle", "9495": "bank", "9496": "avannah", "9497": "aura", "9498": "atic", "9499": "aned", "9500": "ander", "9501": "abrina", "9502": "Snow", "9503": "Sn", "9504": "Ray", "9505": "Rain", "9506": "Philip", "9507": "Open", "9508": "Ooh", "9509": "Make", "9510": "Maddie", "9511": "Let\u00c3\u00a2", "9512": "Luna", "9513": "Lizzie", "9514": "Johnnie", "9515": "Jonny", "9516": "Jeremy", "9517": "Hmm", "9518": "Goodnight", "9519": "God", "9520": "Eva", "9521": "Chirpy", "9522": "Con", "9523": "Brown", "9524": "Buzzy", "9525": "Big", "9526": "Bang", "9527": "Anytime", "9528": "Along", "9529": "Ahoy", "9530": "\"!", "9531": " zebras", "9532": " yawns", "9533": " wrapper", "9534": " woodcutter", "9535": " wondrous", "9536": " winks", "9537": " winners", "9538": " wiggling", "9539": " widely", "9540": " wheeled", "9541": " whirl", "9542": " whine", "9543": " weapons", "9544": " we\u00c3\u00a2", "9545": " wicked", "9546": " villager", "9547": " venture", "9548": " voyage", "9549": " unload", "9550": " undone", "9551": " undo", "9552": " twel", "9553": " treasured", "9554": " toppings", "9555": " tot", "9556": " teacup", "9557": " tugging", "9558": " tang", "9559": " sweetness", "9560": " switches", "9561": " surrendering", "9562": " streams", "9563": " stacks", "9564": " sturdy", "9565": " stained", "9566": " squealing", "9567": " squish", "9568": " squaw", "9569": " sprung", "9570": " sprout", "9571": " speck", "9572": " spikes", "9573": " soot", "9574": " snuggling", "9575": " signature", "9576": " shortcut", "9577": " seriously", "9578": " service", "9579": " screech", "9580": " scientists", "9581": " sacks", "9582": " somersaul", "9583": " sipped", "9584": " route", "9585": " rotted", "9586": " robe", "9587": " riverbank", "9588": " rinsed", "9589": " resisting", "9590": " rescuing", "9591": " regularly", "9592": " realizing", "9593": " rumm", "9594": " ris", "9595": " quarre", "9596": " priv", "9597": " presence", "9598": " pounding", "9599": " playroom", "9600": " playd", "9601": " pinching", "9602": " persistence", "9603": " peasant", "9604": " patients", "9605": " passes", "9606": " py", "9607": " pounced", "9608": " pouch", "9609": " owls", "9610": " overheard", "9611": " overhead", "9612": " otherwise", "9613": " opposite", "9614": " opt", "9615": " novels", "9616": " nibbled", "9617": " nearer", "9618": " niece", "9619": " mysteries", "9620": " motioned", "9621": " moat", "9622": " miracle", "9623": " minded", "9624": " mini", "9625": " mesmerised", "9626": " meows", "9627": " melts", "9628": " mats", "9629": " marveled", "9630": " lunchbox", "9631": " littlest", "9632": " lif", "9633": " lefto", "9634": " lasted", "9635": " laptop", "9636": " lump", "9637": " las", "9638": " juiciest", "9639": " juices", "9640": " joyfully", "9641": " jets", "9642": " inched", "9643": " impatiently", "9644": " huddled", "9645": " hotdog", "9646": " hopeless", "9647": " holidays", "9648": " hare", "9649": " hamb", "9650": " habit", "9651": " guardian", "9652": " gulp", "9653": " grownups", "9654": " grownup", "9655": " gadgets", "9656": " gumball", "9657": " funniest", "9658": " friend\u00c3\u00a2", "9659": " frisbee", "9660": " forwards", "9661": " flowed", "9662": " flooding", "9663": " floppy", "9664": " fluff", "9665": " flick", "9666": " fishermen", "9667": " fiercely", "9668": " feeder", "9669": " farmers", "9670": " fanc", "9671": " ful", "9672": " fist", "9673": " experiment", "9674": " exams", "9675": " equally", "9676": " electricity", "9677": " eldest", "9678": " echoing", "9679": " dustpan", "9680": " drip", "9681": " drag", "9682": " doorstep", "9683": " dollar", "9684": " dodging", "9685": " dock", "9686": " disappearing", "9687": " disagreement", "9688": " disaster", "9689": " differently", "9690": " devast", "9691": " delightful", "9692": " cutter", "9693": " cutest", "9694": " curl", "9695": " cupboards", "9696": " crystals", "9697": " creak", "9698": " cracks", "9699": " cowboy", "9700": " cooled", "9701": " contentedly", "9702": " complimented", "9703": " completing", "9704": " combs", "9705": " collector", "9706": " collapsed", "9707": " coiled", "9708": " clue", "9709": " choosing", "9710": " challenged", "9711": " champ", "9712": " ceremony", "9713": " cartwheel", "9714": " capes", "9715": " campsite", "9716": " bulls", "9717": " bubbly", "9718": " bubbling", "9719": " bubbled", "9720": " boy\u00c3\u00a2", "9721": " bold", "9722": " blooms", "9723": " baskets", "9724": " bicycles", "9725": " aware", "9726": " attempts", "9727": " ass", "9728": " army", "9729": " applauding", "9730": " appetite", "9731": " anyways", "9732": " annoying", "9733": " ankle", "9734": " angrily", "9735": " album", "9736": " Zoomy", "9737": " Whoever", "9738": " What\u00c3\u00a2", "9739": " Wor", "9740": " Woody", "9741": " Wo", "9742": " Wait", "9743": " Very", "9744": " Trey", "9745": " Though", "9746": " Tracey", "9747": " Tall", "9748": " Swim", "9749": " Still", "9750": " Show", "9751": " Should", "9752": " Share", "9753": " Rosemary", "9754": " Rosa", "9755": " Right", "9756": " Ria", "9757": " Quickly", "9758": " Patches", "9759": " Pretty", "9760": " Pixie", "9761": " Piggie", "9762": " Paw", "9763": " Paula", "9764": " Oliver", "9765": " Oink", "9766": " Off", "9767": " Mona", "9768": " Missile", "9769": " Murphy", "9770": " Matilda", "9771": " Mabel", "9772": " Laure", "9773": " Lung", "9774": " Lots", "9775": " Lia", "9776": " Jodie", "9777": " Joanna", "9778": " JoJo", "9779": " Jack\u00c3\u00a2", "9780": " Jump", "9781": " Jordan", "9782": " Jam", "9783": " Instantly", "9784": " Ice", "9785": " Hurry", "9786": " Gizmo", "9787": " Gail", "9788": " Furry", "9789": " Fortunately", "9790": " Fire", "9791": " Fighting", "9792": " Elle", "9793": " Daisy\u00c3\u00a2", "9794": " Dory", "9795": " Chubbs", "9796": " Carrot", "9797": " Colby", "9798": " Behind", "9799": " Beary", "9800": " Bug", "9801": " Bucky", "9802": " Bree", "9803": " Brandy", "9804": " Biscuit", "9805": " BRO", "9806": " Alexis", "9807": " Addy", "9808": " Ace", "9809": " 15", "9810": " --", "9811": "\u00c5\u0093that", "9812": "\u00c5\u0093Will", "9813": "\u00c5\u0093Stop", "9814": "\u00c5\u0093Mummy", "9815": "\u00c5\u0093Me", "9816": "\u00c5\u0093Mama", "9817": "\u00c5\u0093How", "9818": "\u00c5\u0093Alright", "9819": "ziest", "9820": "ysters", "9821": "worker", "9822": "ww", "9823": "wreck", "9824": "vering", "9825": "ustrated", "9826": "usty", "9827": "umph", "9828": "umpl", "9829": "umana", "9830": "uri", "9831": "uds", "9832": "udson", "9833": "tail", "9834": "stal", "9835": "sphere", "9836": "shop", "9837": "sitter", "9838": "rystal", "9839": "rowave", "9840": "romise", "9841": "ricia", "9842": "retruck", "9843": "rapped", "9844": "rain", "9845": "rac", "9846": "ruction", "9847": "riting", "9848": "rink", "9849": "ploy", "9850": "picious", "9851": "oured", "9852": "oscope", "9853": "orth", "9854": "ogurt", "9855": "nor", "9856": "mosphere", "9857": "lyx", "9858": "llut", "9859": "kind", "9860": "jest", "9861": "iri", "9862": "ipede", "9863": "ingle", "9864": "indness", "9865": "inch", "9866": "inchy", "9867": "illiam", "9868": "ildren", "9869": "iky", "9870": "ikins", "9871": "ifted", "9872": "ifi", "9873": "ieve", "9874": "icking", "9875": "icest", "9876": "icated", "9877": "haw", "9878": "hone", "9879": "gum", "9880": "gth", "9881": "good", "9882": "giving", "9883": "freeze", "9884": "fived", "9885": "ethoscope", "9886": "etah", "9887": "erts", "9888": "eros", "9889": "endant", "9890": "eny", "9891": "enore", "9892": "ength", "9893": "eee", "9894": "ebecca", "9895": "ece", "9896": "dele", "9897": "colored", "9898": "cel", "9899": "cri", "9900": "cies", "9901": "che", "9902": "cQueen", "9903": "bster", "9904": "ayed", "9905": "aus", "9906": "atula", "9907": "ateful", "9908": "ashing", "9909": "arted", "9910": "arissa", "9911": "arbie", "9912": "antic", "9913": "ambikins", "9914": "althy", "9915": "aloo", "9916": "alf", "9917": "agine", "9918": "adily", "9919": "ada", "9920": "acing", "9921": "Zoom", "9922": "Whiskers", "9923": "Theodore", "9924": "Turn", "9925": "Suzie", "9926": "Sweet", "9927": "Squ", "9928": "Sophia", "9929": "Ruthie", "9930": "Robby", "9931": "Ralph", "9932": "Per", "9933": "Papa", "9934": "OO", "9935": "Nothing", "9936": "Mick", "9937": "Maisy", "9938": "Lizzy", "9939": "Lenny", "9940": "Johny", "9941": "Grand", "9942": "Fro", "9943": "Friends", "9944": "Els", "9945": "Ds", "9946": "Charlotte", "9947": "Cool", "9948": "Cat", "9949": "Care", "9950": "Butter", "9951": "Buzz", "9952": "Bee", "9953": "Bark", "9954": "Baa", "9955": "Amel", "9956": "Ali", "9957": "Abi", "9958": "?!", "9959": "'.\"", "9960": " zoomer", "9961": " zeros", "9962": " youths", "9963": " wilder", "9964": " wiggles", "9965": " whizz", "9966": " whiskers", "9967": " weren\u00c3\u00a2", "9968": " webs", "9969": " washcloth", "9970": " vows", "9971": " unwrapped", "9972": " untangle", "9973": " underwater", "9974": " unzip", "9975": " unable", "9976": " unn", "9977": " twelve", "9978": " tutu", "9979": " trusting", "9980": " triumph", "9981": " trailer", "9982": " trudged", "9983": " totally", "9984": " toothbrush", "9985": " timid", "9986": " ticking", "9987": " threaded", "9988": " thoughtfully", "9989": " tentacles", "9990": " teeny", "9991": " tech", "9992": " tailor", "9993": " tiring", "9994": " swirling", "9995": " swapped", "9996": " suspicious", "9997": " sugary", "9998": " studio", "9999": " strolled"}